200f0afcd1ee
13df1916f8f9
fccd130222fd
e5dddd06261a
ef05f323111f
2d100afcdafc
0be20cfab703
ffd4e2fdc712
e8eee7290e19
dc03f11c0ffb
271b261df9e3
08161e21ddf6
0714e81bb404
c1ffe202b427
e8220410df15
32f72c2121e0
fe1827f91c16
e3131703fa0a
cb2b0d0edf22
0b2a02fad827
122d141b1ceb
063b1e1011ea
eb2f30da281a
e6201fdc041f
0024f7d8f10b