080bfb01fc04
120d09f902e8
eff706fe03e9
00f60cf0eaf7
15f00ceff0ee
0ff1040f0a00
f90df60dfae9
fa08ea0a02ea
0ef4fcf9f0f6
12fbe8f4fbfa
f9ec090a0c01
ee11ef1012fe
030def01ff0a
11f404f8f712
12f8fbeff50a
edf8010afb06
fc15011103fc
0819f20503fb
0909fef4f90b
14e90ef9f5f9
fa02160ef6f2
0c0b0611f4fc
1309fd07e401
fb0603e6ed00
05f3f6fdf807
11f4fb0307f9
12eefffdf202
f70505edf808
030707f8fd0f
f8f9070c0613
0e0af7ebfefc
1204f6e2f2f9
05fb07ddde01
0efc11f2dc17
e4f713f5ea18
1109fae0f9f4
0ef3f2e205fb
fbe308e206ff
e8e010f9f307
e8f50d05f213
03f7ffe508e8
f5e7f8f111e8
fbcaf9ef0bf7
d1deeeedfff2
dff0fafaf602
fff7f3fa17fc
f2eef4f522fa
f0e2ebf725f5
e1f5ec0508f3
0a05fe0903fc
fffaf900fbff
110207edfe0b
0801fc0001fd
f2f8010b0604
f90409faf8f4
000df1f40205
fe02ff04fdf6
e501fb0605f7
eb0efb0803f1
0f0bf0f505ee
0600fef9010a
f602f7f6010c
ecfdef060a0d
fd06e90a040b
0d0bfe021208
f7f8f3f2f905
f8f90900ff09
ff09030d0719
091205fb0713
f9f50e011008
fa0af703010c
0e0d01f9fe03
0d010a0e0a07
ff0a080c0bfd
06f31308ff09
f5ff08070102
fc07f805f8fc
f00efffafdec
f80a02f802e8
fb0708fe02f6
ecfaf5f21413
f9f3fe0b0c05
fb08f404faff
ec10effdfd0d
fffef9030012
f803ffef0715
f9eb0709191b
ebfd050f1c05
f6030405110d
09ff0e070a0f
fdf202f7f404
02eb1501f405
fdf402111b0d
00140a101801
07f8fafd0901
0ef00afdeaf3
0afc0efde4ff
fe011114f303
0f0d1016f503
0d08fd0703fb
1910fffe09fc
1101f706fcec
fc04ff02f4e3
040912fe01e1
fd01f6000de3
f404f9fb0702
e9fdeefa0814
f0fae2fef11d
0502edf50918
05f6e304fc0a
e8f6edfcf709
f403fcf40d1a
070a09f7100f
08fd15060c14
f1ef0d060c08
ff030102f6f6
08110debeffe
fdf4140106f9
07f11e0617fc
e60016030900
13110002e0f2
09fb0cfee9f1
00f20900eff1
fafffb00f2ee
fc0cef02f8fa
14e906fc0cf7
1fd60a1a03f9
35f709eff5f7
10fb01f1fcd7
03ee16fbfb07
fbebfa0018ed
20d603231bf5
10f008100ce4
080be7f3f5da
01f411fae4f2
fc09fd0af2e3
0aea051df5e2
df0dfb1dfbe0
1a1cdcfff4e5
1110e806faf7
0514ff16e1f5
08fefe16d1eb
f707f616d4f8
1f19f1fae3fa
0225fa05f2f8
fff3fd0ddcfb
0b0e03ffd6f4
1814f7f6df01
1916fd00e6f6
f51ff8edfcef
04f906e4fbf4
08fc04f8ef04
01fe0214f9ff
00eff60c10fa
f4ecebfd04ef
fcf00af510fb
05fcfc0ae9f4
f8f7e212e80b
0bffe803ed02
07fd0aeb11f3
f500fb000cfc
ea0de01811f4
f512e80ef611
090704f9e714
14fc0ff601f0
f202e30513e6
ecf7e30f22f3
0ef70b050e11
0afb1505ef10
0efe02f3f1f8
0709eb03fdf2
04fff30b11f3
0eec08021816
0eec12fe0019
00fd1002ffea
00000e0d1216
e9050804fe01
f207f6feefee
14f1f9e4f30d
0c060ef0e9fe
fe0e0312151e
1106fbf93005
fcfe06e71bf3
13f205e608f1
f5f8fef7e10b
14fe03fff50d
0e0013f0220f
fff305dd3702
e207f0eb1ffd
e010f91bf30a
05fafdf9f903
07f6fdf3f613
e4f001ef0b00
e2ef07011a03
e4f013140dfd
030bff02fefc
0508fcfef317
ec170b02e609
e309061206f2
ea030b131012
05fd0cf6f80d
f7fe0ce90b08
04fc0efcf709
00ff0d10f7f8
fdfbfd10f703
0efe05ef0503
02f005e900f9
fbfbfe0af4f8
f0f8f0feed05
f7f6e20aed03
faf911f406fc
f104f7f7f8f2
f307df02f2f6
f80afd0cf105
111b1b05f707
ed06f9fafef9
ec10df02f8f1
fd12e8faeff3
0119130703f9
0d1114f3f6ff
0e06f60800f4
08fce80007f6
0afd0c01fd07
08010600fe06
0cfafef3f5fb
07fefbef0f00
0cf300edfef4
fe02fcf5e4f5
f9f8eff9f80b
05fff30d05fb
040108f00a07
f9ef0ae51dfc
f008f10405f6
000de905f10b
0f11ff0ae40d
fe040b00f608
f805f0f519ef
f40ee9ff1af1
0316f912f508
0911fefdf010
060208f7f306
02fde701f9e8
f9fcf00b15f0
fdf9f1031606
01f00bf7ee18
0afd0808eef8
090901fdf3f2
faf9f1090cf7
03fb0001170a
07f316fc0508
0aff0be80d01
0b07f60407f2
0e06f709ecfb
09efd707f500
f7f3e1f3fdf4
0706f7fc11f7
0cfee40501e8
f4febe06f9fa
ec07f2eedcf7
040d21e8edf7
040deb0509f1
f90dc50307ee
f90ff20008f8
ff1a12e9f2ee
09181efcf4e9
11f6d30808f7
1201e6070bf6
12e712f20504
fade02f300f3
fcde02faf6f6
0efffd00f9f3
02e701020307
09ef04f1f8ff
fa00fb020af2
ddfe03fd0109
280d1ef8f1f9
200314daf1ec
eefa1be8d9ec
f2fe1104ea06
070212ff1109
0f052e00df0a
f9ea17e506fb
d6041d03f7e3
df0a1720ef10
fbfddb08fb1c
f7f51418e627
cfe011f60f01
d5fd1f0b12e6
f7eef1100f19
0debec0eee17
deef0e19f535
d1060f1e0714
d20cfe182109
fbf71b121d1c
0e03fc0c0119
e8f90f13ee28
e50d080c0503
fe05080d0c08
1fff1efe2411
13f1f9ff1314
000000fdfffc
0000f7fd05fb
0000f0ff0bfe
0000e802f0f1
000002fbe5fc
000005050100
00001012ff08
0000fc000200
0000f507f7f5
0000fc04fff5
00000001f905
00001304fefc
00000cff0bfd
000001fdfdf1
0000010000f2
0000e4eeeaed
0000feeae9ed
000008e0fbf7
0000fbebf900
0000fff3f301
0000f1e9fdf3
0000f4ef01f3
0000f8f9fbf6
000005040902
00000603fd00
0000f7fb04ef
0000f1f504f6
0000f1f6f5ea
0000fe06f3e9
0000f7f6fb05
0000ee03eefa
0000e2f3f0fa
000002f9f103
000010fafef0
000003fc10f5
0000fcf6f9f7
0000f1f2fb01
0000e8e30d04
000006f1120e
000005020316
00000dff1305
00001cff0b01
0000130103f7
000005030809
000002060610
0000020d060e
000012121209
00001216fe08
0000fa10fb04
0000f002f10a
0000fbf3fc07
0000f501f10b
0000fcf50103
000004090e00
000003fe0504
000000f1fcff
0000f2001001
00000b0d150b
00000a0d0503
000000f8f90b
00000308160d
0000fb1410fb
0000f90e0a05
0000fe0e0307
0000ff140908
00000b0f0310
00000806f80f
0000fe02fef9
0000f8f1f709
0000f5070704
0000f5f4f6fb
0000fbe4eef8
0000f9e3f200
000006f2f907
0000fdfcfd0a
000000f2fb01
00000c0b0902
00000bfd0105
000000fc020c
00000505fcff
0000f90c0905
0000020e0f13
0000190d0709
00000b0d14fc
000004130d00
0000f218f80e
0000f1080601
00000d060c0e
000012fbff14
00000dfd08fe
0000f8060c01
0000e6fe04f8
0000edebf906
000006e501fb
000011f105ff
000003f70307
000008fcfaf9
0000f509f3ef
0000f80afbf6
0000030e0506
00000604010c
0000070b0a07
0000ff0518fa
0000faf9fc08
0000f3fef2fe
000003131cf9
000013070c0d
0000160d07fb
0000fd0af602
0000f414fff5
0000f3190f0f
0000ff0cf10d
000013f5f417
000008fbf907
000009f40802
0000f6f9e6f5
0000eeecf0e6
0000efea0702
000005eefc05
00000af1f90c
00000cf00afb
0000fb0f11fb
0000041e0106
0000fd1702f8
0000f80ff3fc
0000fefcfbfd
00000cfdf4fd
000001f6f9e4
0000fd09ef00
0000ebfef3f9
0000fff1e5f7
0000f2f500f6
0000f50a00f1
0000fe1105f4
0000f503ef00
00000400f9e6
0000ee0a06eb
0000f519fde9
0000050aeff5
00000f02f9f1
00001105feee
0000ea04f7e5
0000ea08e8e4
0000faeef4f0
000016eff8f8
000017e6f2ff
0000f0e7e9f6
0000e0f1ecd8
0000feefffeb
000012ef0402