0000007F
0000002A
FFFFFF80
0000007F
0000007C
FFFFFF80
FFFFFF80
FFFFFF80
00000044
0000007F
FFFFFF98
FFFFFF80
00000017
FFFFFFA1
FFFFFF80
00000064
00000026
FFFFFF80
00000029
FFFFFFB0
0000007F
0000007F
00000069
0000001E
0000007F
FFFFFF80
0000007F
FFFFFFFA
0000007F
0000007F
00000058
0000007F
0000007F
0000006E
FFFFFFEC
0000007F
0000007F
0000007F
0000007F
0000007F
FFFFFFDA
00000013
FFFFFF82
0000000C
0000007F
00000054
00000045
0000007F
0000001E
00000061
0000007F
00000049
00000078
0000007F
00000064
00000042
FFFFFF9B
00000039
FFFFFF97
00000001
FFFFFF9E
FFFFFF80
00000000
0000007F
00000037
FFFFFFBD
FFFFFFC4
FFFFFF80
0000007F
0000007F
FFFFFFB6
FFFFFF84
FFFFFFBF
00000062
00000000
0000007F
00000002
FFFFFFAD
FFFFFFDA
0000000B
FFFFFF8A
0000006D
FFFFFF80
00000021
0000007F
0000000B
FFFFFF80
FFFFFFFA
0000007F
0000007F
FFFFFFAD
FFFFFFE7
FFFFFF80
FFFFFF80
0000007F
00000022
FFFFFF9E
FFFFFF99
FFFFFF80
0000007F
FFFFFFD6
FFFFFF80
0000007F
FFFFFFCF
FFFFFFE7
FFFFFFFF
FFFFFFF9
FFFFFF80
FFFFFF80
FFFFFF80
FFFFFF80
0000007F
0000003E
0000007F
0000007F
FFFFFF80
0000006C
FFFFFF88
FFFFFFA8
0000007F
