FF
FF
00
01
04
03
FD
00
FB
FD
FD
FF
FE
FF
04
FE
00
06
FE
02
F8
FB
FF
03
FE
00
FB
FC
FE
FE
01
01
03
03
FF
06
04
02
03
01
02
FD
FC
FF
02
FD
F8
00
04
04
02
FE
01
00
FF
04
FE
00
07
02
05
FE
00
06
02
08
04
FE
01
FF
06
04
05
04
FF
FF
FC
01
FF
05
03
00
FF
FE
02
FE
FE
02
04
01
FD
02
01
03
00
F8
F4
FB
02
02
07
02
01
01
01
00
FD
FD
04
08
03
03
00
00
FE
07
FE
04
01
04
06
FE
00
01
FB
FF
01
FF
07
FF
00
FE
02
01
07
02
FD
00
08
02
03
FF
05
FF
F9
05
04
FA
F7
FC
03
05
FD
FC
07
04
00
FF
09
08
04
02
02
06
FE
FD
02
03
04
04
FF
04
07
07
FE
05
05
04
08
00
FE
04
02
FE
01
F1
02
FB
FF
FB
F3
FD
F6
FC
FF
FF
05
FC
FB
01
FF
FF
FD
00
04
05
FF
FF
04
06
02
06
FD
FD
05
04
04
01
06
04
08
09
06
04
FD
01
02
FE
F9
FB
FC
FD
F2
01
FF
00
F7
00
02
02
02
FF
FD
03
FF
00
FD
F9
00
FC
02
FD
FB
00
05
FB
FE
FC
02
FB
00
FF
00
07
06
FF
FD
FC
06
03
FE
FD
02
FD
FF
02
FD
02
03
F9
FD
00
01
FD
03
01
FE
05
03
04
05
04
FC
FE
F4
00
02
01
FD
F6
03
02
FB
00
03
02
02
02
FD
02
05
04
01
FE
00
05
02
FE
FE
FF
04
FF
FC
FE
FF
05
03
05
FE
F9
03
FE
00
FC
FF
07
03
FF
FF
03
05
03
00
02
FF
01
01
FE
FD
00
04
00
FB
F1
FA
FA
FF
FF
01
FE
FF
07
00
04
05
03
03
FE
01
01
FE
01
FE
FB
FC
00
05
02
FF
05
FD
03
08
00
FF
FF
03
02
FB
FC
02
01
FE
FE
05
01
FE
02
00
02
04
00
03
00
03
03
FD
FC
FE
00
01
03
01
03
04
FF
00
01
03
FF
FD
02
03
04
00
02
00
FF
02
01
FC
FC
FB
00
FE
FE
01
04
02
06
00
07
01
04
04
04
03
03
03
01
FA
FB
03
06
01
FC
00
05
04
05
FE
01
05
FC
00
FD
04
03
02
02
FE
02
FC
FD
00
01
FC
FC
FB
00
06
FC
FD
FF
04
03
00
04
FE
01
FF
01
FE
FE
FF
02
0B
01
FE
FF
FB
FF
08
08
10
01
00
06
FF
FD
FF
00
00
FE
F7
FF
06
FE
03
01
F7
01
02
FD
FE
FE
FC
04
00
00
FE
05
06
05
FE
04
03
05
04
03
FF
03
FB
03
02
FB
FB
00
08
FD
FC
FD
04
07
09
FE
00
00
F9
01
FE
FF
FC
FA
FF
01
00
FE
FD
08
02
FB
FA
FD
04
F8
FF
02
04
03
FE
F8
FB
00
FF
0C
02
07
07
FF
04
00
11
0C
03
08
02
01
02
FF
01
FD
00
00
03
FD
F8
FE
FF
FF
00
FD
00
FE
FA
FB
02
FC
FF
F9
FC
F8
FD
02
05
FF
FF
00
07
03
0A
07
03
04
04
04
14
02
03
FF
01
FF
FB
FB
02
FB
00
F9
00
05
06
FF
FD
F8
FE
02
FA
01
FF
04
FC
00
04
FE
FF
01
05
01
00
01
02
00
02
FF
07
FF
02
07
FF
F9
04
03
03
03
04
01
04
FE
02
00
02
01
FF
01
06
01
FF
FC
07
09
03
01
03
FC
FF
00
FF
00
04
02
FF
FF
03
05
02
FF
03
06
05
FF
FE
04
03
03
00
01
02
01
FF
FC
02
00
01
04
05
FF
03
00
05
04
04
04
01
03
FF
00
FF
03
02
03
0F
05
FD
FD
FC
03
FD
FF
04
01
F9
FB
FF
05
02
FC
FE
02
07
FF
02
00
03
05
05
FD
FF
07
02
03
00
01
02
FF
FC
01
01
02
04
00
03
05
05
FD
FE
01
FE
FC
00
F9
02
FF
FD
02
FE
FD
FF
01
FE
FE
FD
FF
00
01
FC
FE
FF
FE
FD
FE
00
02
03
FE
00
00
FF
FF
01
FF
FE
FD
FE
FF
FF
FE
02
00
FF
FF
02
FE
FD
FD
FE
FD
02
FC
00
FF
FF
01
FE
FE
01
FF
FD
00
01
FC
00
02
FD
FE
FE
02
01
FD
00
FF
FF
FF
FD
FF
FF
02
FC
00
FF
01
FD
FE
FD
FD
FF
FD
FE
FF
00
02
FF
00
00
FE
02
00
FE
02
FD
00
FE
FE
00
FF
FE
02
FC
FE
FD
FE
00
02
02
01
FD
03
FF
03
02
00
00
02
FE
02
00
FD
02
01
FD
FD
FD
FD
03
FE
00
FE
02
FF
02
FD
FF
01
02
FD
FD
03
FE
02
FC
FE
01
03
FD
00
03
02
01
03
FD
02
FF
FE
00
FE
00
FD
00
00
FD
01
FD
02
FF
FE
02
01
00
FF
FC
02
02
00
FD
01
FF
00
FD
FD
FD
FC
00
02
03
FD
FE
01
FD
FD
02
01
01
FF
FD
FD
FF
02
FD
03
FE
01
FE
00
FE
00
FD
FD
01
FF
FD
02
FD
00
00
02
01
02
00
FD
02
FD
00
02
FE
03
03
03
FC
FD
FD
03
00
FD
FF
FD
00
FD
FD
00
01
FE
FD
FD
FD
FF
00
02
FE
FD
FD
FD
FF
FE
FE
01
FD
02
02
FF
FD
02
02
00
FE
FE
03
01
FF
FD
FC
02
FE
FF
FE
FF
FE
00
01
FF
FE
FF
FF
FD
FE
01
02
01
FE
FF
FD
03
FF
01
FD
00
01
FE
01
02
FF
FF
02
FE
FE
00
FD
03
00
FE
FE
FE
00
FD
00
FF
02
FE
02
FE
00
03
FD
01
00
01
FD
FC
FC
FF
FF
FD
FD
03
FF
FD
FF
02
FF
FF
01
01
00
01
00
00
FE
FC
FF
FF
FC
FF
01
FF
00
FE
01
FE
FE
FE
FD
FE
01
02
00
FD
FD
00
02
02
FE
03
FD
FE
FE
01
01
00
FF
02
FE
02
FF
FE
00
01
FF
FD
01
01
FD
FE
FC
00
FD
00
03
FF
00
02
03
02
F5
FC
06
05
FE
02
FC
01
FE
01
F9
FB
FA
FE
00
FD
FE
01
00
03
01
09
05
FF
FE
02
02
00
FD
FE
FF
00
06
01
FB
00
FF
FF
00
FE
08
01
FE
FD
FE
06
03
01
FC
FF
FF
04
01
04
FF
FF
FE
05
04
FE
FE
FD
02
02
02
03
04
00
03
FF
F6
05
05
05
FC
F4
FE
FE
03
00
FB
FD
FB
01
FF
FE
F7
01
FF
03
0D
03
00
FA
FA
01
FF
01
FC
FC
02
04
05
01
02
FC
01
FF
01
01
FC
01
05
03
01
00
03
03
02
04
04
00
01
07
06
00
01
FE
00
FD
00
02
FE
FB
FF
00
00
FD
FB
05
03
FF
FF
00
F6
03
01
FF
00
FB
01
04
03
01
01
02
FD
05
04
03
03
05
0B
08
04
05
FA
F9
FA
03
FB
00
00
FB
01
FA
FB
00
02
00
FC
FE
FD
FD
FF
F7
03
03
00
05
0B
05
03
FF
00
09
05
04
02
01
08
05
04
FD
03
02
05
04
FD
FE
01
05
05
FD
FC
04
03
08
03
FF
FB
00
05
FC
01
F8
F3
FF
02
02
02
FB
02
06
01
00
F9
FA
FD
03
FE
FE
04
08
05
FB
FC
FF
04
06
FF
03
04
FE
01
02
01
05
FC
FC
FE
FE
02
FC
FC
03
00
FF
03
02
02
01
03
FD
00
FD
FD
06
03
F5
01
04
01
FF
F8
00
00
FF
00
F8
02
FB
01
03
08
03
01
02
FE
FE
04
04
00
FD
00
02
01
02
FD
03
FF
FE
02
01
FD
FD
02
FE
08
09
03
02
02
00
01
01
03
00
FD
FD
04
FB
02
02
FC
03
FE
FF
FF
FD
F1
FD
02
07
08
FD
02
00
08
FF
07
04
00
01
FE
FD
FD
FD
FE
FF
FB
02
02
FF
FB
01
FC
FA
FD
06
FE
05
00
FC
02
01
01
FF
FC
FC
FF
01
FF
01
FD
00
04
00
00
02
03
04
FF
02
FB
04
06
02
FC
FE
0D
09
03
05
02
05
FD
01
04
02
07
FE
00
FC
00
FD
01
02
00
FA
04
FF
FE
05
02
FF
FB
02
06
02
FA
FE
FD
00
05
FB
FB
01
FD
FD
03
03
FC
00
FF
FA
FF
FE
FF
FE
F7
FE
FC
02
FF
FF
FB
00
01
FF
FD
00
00
00
02
FE
FC
FF
FE
01
06
00
00
02
05
09
00
FB
FF
05
08
FD
FD
FF
FE
05
FB
FD
02
FB
01
07
03
01
02
FD
05
FF
FF
FD
FF
03
FA
FE
00
FE
FD
04
FD
02
01
01
FE
06
FD
01
F9
FF
FB
02
FA
FE
02
04
06
FD
FF
05
FF
04
01
00
00
FF
F6
02
03
FF
00
FA
01
02
06
01
0B
02
03
06
05
FD
03
FC
FF
04
F5
03
FB
01
03
FE
03
00
02
09
FF
09
0C
03
FF
FC
01
06
02
FD
FE
FB
F9
FF
02
00
FA
00
FA
FE
01
02
00
02
FE
02
FD
04
02
01
FE
FC
04
04
00
01
FE
FF
FE
03
01
00
01
FF
03
08
03
04
03
07
03
00
FA
F1
02
08
01
00
FC
00
05
0B
0C
08
05
FF
05
00
06
04
FB
07
07
03
FB
FF
04
08
03
00
FD
06
06
FE
FD
FD
01
03
08
00
FB
FC
01
03
03
00
00
FE
00
01
FF
01
FC
FE
FE
04
FE
00
FD
FE
FF
02
FE
03
00
03
FF
FD
02
01
02
03
FE
07
03
FA
06
02
03
01
FA
01
03
01
00
FF
FB
00
FE
02
02
FC
00
01
01
00
FE
FD
FB
01
02
03
01
05
04
02
01
FE
00
02
FD
00
03
04
FF
01
FD
FF
00
00
06
01
FC
01
00
FD
0E
08
09
03
FF
06
03
02
FA
00
02
02
03
01
FF
01
01
03
FE
02
FF
FD
FA
FF
FE
00
03
00
FF
FF
01
FF
FD
01
FC
FC
FF
04
FD
FE
FB
FA
FF
05
05
FF
FB
FA
00
04
02
01
02
FF
01
00
FE
FF
02
FD
FE
FD
FF
01
01
FE
FD
FD
00
FC
02
FD
00
02
00
FD
FF
FF
FF
01
FF
00
00
FD
01
FD
01
01
FF
01
FE
02
01
FD
01
FF
FF
02
02
FE
FD
02
FC
FE
FF
FE
FD
FD
02
01
00
01
FE
FF
FC
FE
02
FF
FD
02
00
02
02
FE
FF
FD
FF
02
FD
02
FE
01
02
FE
02
01
FF
FE
02
FE
FD
FE
02
01
FD
FF
03
FF
03
02
FF
01
FF
FD
00
FE
01
FD
00
02
FD
03
02
FE
FE
FF
01
02
01
00
FD
01
01
FF
02
FF
FE
01
01
FE
00
00
FF
FE
02
FE
FD
FE
02
FF
FE
FD
FE
FD
00
FE
FE
00
FF
FD
FD
02
02
FE
FF
00
03
FD
02
FE
02
03
FF
00
FF
00
02
FD
00
00
FE
FF
FF
FD
01
03
01
FD
03
FE
FE
02
FE
FF
FF
03
FC
FE
01
00
01
01
01
FF
01
02
FD
FE
00
FD
FF
FD
01
01
01
02
01
01
00
FE
00
FD
02
01
FF
02
FF
FD
00
FF
FF
FD
03
02
02
00
FE
FE
03
00
FD
01
FE
FD
00
FF
02
00
FD
FD
00
01
FC
FD
00
FE
00
FE
01
FD
FE
01
FF
00
02
FE
02
02
02
FE
01
01
FD
FE
FC
FF
FF
02
02
00
FE
FE
FD
FF
00
FF
FD
00
FF
FD
FD
FE
00
02
FF
00
00
FE
00
FE
FF
FE
02
01
FE
FD
FF
03
01
FD
FF
02
FD
FD
02
02
FF
02
FD
FF
FE
01
01
FE
FD
02
FD
01
03
FF
FE
01
FD
FE
02
FC
02
FE
00
00
02
00
01
FF
FD
FF
FE
00
02
FD
03
01
03
00
FE
FF
FD
01
FE
00
02
00
FF
00
FF
FF
02
FE
02
FF
FF
FE
03
FD
01
FD
00
FF
FD
FE
FD
01
03
01
FF
FD
02
00
FD
03
03
00
00
01
01
01
00
FF
FF
FF
FD
01
01
00
01
FD
FE
FE
02
FF
01
05
FF
FF
FE
FB
FB
00
FD
01
FE
FE
03
07
02
0A
04
00
03
05
03
08
05
04
FC
FF
03
03
02
0B
05
01
02
FD
08
00
02
00
FD
02
06
03
02
00
FC
FB
03
06
03
02
0C
02
06
02
FD
05
03
03
FC
F8
04
02
03
06
FF
F8
FE
FC
05
03
F6
F9
FD
04
06
03
FF
FF
01
00
F2
FA
03
FF
03
FE
00
00
05
02
0B
05
06
FF
03
04
FC
FF
FC
01
04
06
05
FF
F6
05
05
FF
FC
F7
FB
00
FF
00
FF
F9
FA
FC
04
04
FC
01
05
0D
04
03
04
FD
FB
00
00
FE
F7
F9
03
FD
FE
FC
F2
FF
F9
F7
FF
FF
FC
F9
F7
01
FB
01
03
0D
0F
00
01
01
08
04
FA
FA
FE
03
0A
F9
FF
FA
F7
02
03
01
F5
FB
00
00
01
02
FF
F7
FA
F9
05
08
FD
FF
F8
07
0B
01
06
04
05
00
FA
02
06
EF
F3
FC
01
04
FD
03
08
04
FA
04
01
FF
FA
F2
FB
F9
FC
F0
F4
F1
E9
F4
F8
FE
FB
EE
F8
01
01
02
04
05
FB
0A
F7
FF
FD
F8
05
F9
F5
F2
EC
FA
F8
F0
F3
F4
F9
02
FD
02
F8
00
01
05
03
06
0A
05
06
F9
FA
FF
07
FC
FC
F8
EE
0C
03
02
05
01
FD
FE
FF
08
FE
FF
01
FA
FF
05
FD
02
FC
EF
FE
FE
FB
05
F9
FB
FB
F8
08
05
01
F7
FC
06
09
0B
03
01
03
01
04
03
01
FE
00
FF
02
FF
FE
FE
FD
04
02
05
FE
05
02
05
03
01
05
FF
F9
04
FF
07
FB
FD
03
FB
02
FF
FB
00
00
F8
FD
FE
01
03
FF
03
04
00
03
05
F3
00
07
0D
0E
FE
03
03
FE
FC
07
00
00
F5
ED
05
04
04
F8
FE
02
04
02
04
05
00
03
00
01
FF
03
01
FD
01
00
02
02
00
02
05
FF
FE
03
01
07
FC
05
04
07
FF
00
FE
FD
FE
02
FF
FE
FD
FF
01
00
00
01
FD
01
02
FD
02
00
FE
03
01
FD
FE
FF
FF
FE
01
FD
FF
FF
01
02
FE
00
FD
FE
00
FE
02
01
01
02
03
01
01
FD
00
FE
03
03
FE
FF
FE
00
FE
00
02
FF
FD
00
FE
FD
FE
FD
FE
FF
01
00
01
00
FF
FF
01
FD
03
FD
02
00
FF
02
01
00
01
01
FD
03
01
00
FF
FD
01
01
01
01
FE
FE
03
FE
03
00
01
FE
FE
FD
FE
FF
00
00
02
FE
FF
00
03
FE
FE
01
00
00
00
01
FF
FE
FD
FE
FD
00
FE
01
FF
02
00
03
01
FF
00
02
FF
01
00
FF
FC
FE
02
02
02
01
00
00
01
01
FF
02
FD
FE
00
02
01
FD
FF
00
FF
00
FD
00
FD
01
FF
01
FE
FF
00
03
FD
00
FF
FF
00
03
01
FD
FD
FE
01
01
01
00
01
FD
FE
FE
FE
FE
01
FF
FD
FD
01
00
00
FD
03
02
00
00
01
FD
FD
FE
02
02
FE
02
01
01
02
FF
FF
FE
00
00
03
FF
02
FF
01
02
FF
FD
02
FC
01
01
00
01
FD
00
FF
00
FE
00
FE
00
FD
FE
02
01
FD
02
FE
02
02
01
FE
FF
00
03
00
02
FE
FD
01
01
FD
FD
FD
FF
01
03
01
FD
FF
FF
FF
00
00
01
FE
03
00
FD
01
FD
02
FE
01
FE
00
02
FE
01
FD
02
02
00
01
02
FD
03
01
FF
FD
00
FD
FE
01
01
FD
FF
FE
FD
FD
FF
02
00
02
FF
FD
02
02
FE
00
00
FF
FF
00
03
01
02
01
FE
FF
FE
01
02
FD
FE
FD
FF
FD
01
FE
FF
02
01
FF
01
FE
03
01
00
02
FD
01
FD
FD
FF
01
FF
FE
01
01
FE
01
01
FE
01
FF
00
FD
00
02
FF
FD
FF
00
01
03
FF
FD
FD
FE
00
FE
FE
01
02
02
01
FF
FF
FD
02
FF
FE
FF
FD
00
FF
01
FF
FD
01
00
FC
FE
FF
FE
02
FD
FD
FF
FE
FD
FD
FE
01
FD
FF
FF
FD
01
02
FE
FE
02
00
FF
FF
00
FF
FE
01
00
FE
01
01
02
FC
FD
FD
FE
01
02
FE
00
FC
FF
FD
FF
01
FD
FD
01
FD
02
FF
FF
FE
02
FE
FF
FF
FE
FF
FF
FC
00
FE
FE
01
01
FD
01
01
FC
01
02
02
FF
01
02
FC
02
00
02
FE
00
FF
FD
01
00
FF
FD
00
FD
FC
FF
FD
FD
02
FF
FF
FF
02
FF
FE
01
FF
02
01
02
00
01
01
FE
FC
FF
02
02
01
FE
FD
FD
FD
FE
02
00
FF
FF
01
FE
02
FE
01
00
01
FD
01
FD
FD
00
01
FD
FC
01
FD
01
FE
FD
00
FE
FE
00
03
FE
00
FE
FE
FF
00
00
01
00
00
FF
FE
00
02
01
FF
02
00
FD
FD
02
FD
01
FD
00
02
02
FF
FE
FD
00
00
01
FC
FE
FF
02
FC
FD
FF
01
02
01
01
00
02
FD
00
01
FE
00
00
01
FC
00
02
FD
FF
02
FE
01
02
00
02
FF
00
FE
01
FD
01
FD
FC
00
02
00
FD
01
FF
FE
01
00
FF
FD
02
FE
02
FF
FD
02
02
FE
FE
FF
FF
02
FE
FE
00
FE
02
02
03
01
FE
01
01
FC
02
FD
FE
02
03
02
01
00
01
FF
00
FE
FE
00
FE
FE
00
FF
01
00
01
00
FE
02
FE
02
00
FF
01
FD
02
00
00
FD
00
FF
FD
01
01
FC
FF
02
02
FF
FE
FD
FE
01
00
FE
FF
FE
FF
FD
00
01
FF
FE
02
FD
FC
01
00
00
FD
FF
FF
FE
FF
00
01
00
FC
00
FF
FF
FC
FF
FD
FD
01
02
FF
02
FC
00
01
02
FE
03
01
FF
FE
00
01
FE
00
FE
03
FE
02
FF
FD
00
FD
FD
FD
02
FD
02
FE
00
FC
00
FF
00
00
00
01
FF
FC
00
FF
01
FE
FE
00
FC
00
FF
01
FF
01
FF
00
01
FE
03
03
03
FF
FD
02
FC
FF
02
01
FD
F5
FD
04
05
00
FC
FE
00
FF
FF
FD
FE
F9
FC
FE
FD
FC
FE
03
00
FF
06
08
01
01
04
09
06
01
FD
00
01
FC
01
FD
00
FB
FB
02
FE
04
FF
02
03
03
08
03
03
06
04
00
06
FF
07
01
01
00
01
05
03
FC
FE
05
02
00
05
03
02
00
03
F7
04
04
05
04
F6
FB
01
FF
02
FA
FF
FA
FF
03
06
F4
FE
FF
FE
0B
FF
FF
FE
01
03
05
FC
01
07
01
00
03
01
01
FF
04
04
01
01
00
FE
05
FE
02
FF
02
FD
06
02
03
02
07
08
05
FF
FF
03
02
02
FD
FC
01
FD
00
02
03
FE
FE
FF
04
02
FC
FD
FF
09
04
F9
02
03
06
03
FF
05
FF
00
FD
01
05
FF
02
01
06
05
01
01
02
FF
04
00
FE
02
F8
01
03
F8
FF
FC
FC
FA
F8
FD
F2
FB
FC
FC
03
FE
FD
FD
02
FD
FD
06
06
FF
00
02
03
03
05
06
FF
01
07
03
02
02
00
FE
02
08
02
FD
02
01
FE
FD
FF
FC
FD
FF
FA
FE
FF
FC
F3
03
02
03
FF
F7
F8
06
07
04
FC
FF
05
01
01
FA
01
03
04
FB
FC
FF
05
01
00
01
00
07
FF
02
FF
FE
03
F8
FE
FB
FD
02
00
FF
FF
FF
FF
F9
03
FD
03
FF
FF
FE
FB
02
03
01
01
02
00
FD
F7
03
04
04
06
F8
01
00
FF
00
FE
02
02
FE
00
FD
04
03
FE
FE
FD
FF
00
00
FD
01
FD
FC
FD
FD
FC
01
02
00
FF
FD
03
02
02
00
FF
07
02
FE
00
05
02
04
FF
02
00
02
00
FD
FC
FE
FC
FA
FB
F8
04
F5
FC
FB
04
06
02
02
05
03
06
05
FE
01
FF
01
FB
FF
01
FC
FD
00
01
FF
00
FE
06
02
03
FF
01
06
05
02
00
FC
FD
01
01
02
00
00
00
03
02
02
01
02
02
02
FF
04
04
FE
FD
FE
FC
FA
F1
FA
FC
F6
05
FF
08
00
01
07
09
03
07
01
03
FF
02
03
FD
FD
FE
03
00
03
FC
FD
FA
FA
04
04
05
04
06
03
05
01
08
07
00
FF
FF
06
07
04
01
FB
FF
07
09
03
01
FD
02
09
05
FF
FF
00
05
03
FE
FC
03
04
01
FF
FE
00
02
FC
F6
F9
00
FB
FB
FF
00
01
02
04
09
04
06
FD
04
02
00
03
FA
FA
01
01
0D
00
01
00
01
08
04
05
FA
06
05
03
FD
F9
01
01
05
00
01
FF
FC
01
03
02
05
04
02
FF
03
F8
FB
07
04
03
01
03
05
FC
05
06
02
04
FA
FF
FD
FA
F9
FD
FD
02
0A
FE
FD
FD
07
15
FD
01
F8
0A
09
00
02
F8
01
F8
FD
FF
FC
FF
00
06
FB
04
07
06
FC
FA
FD
04
02
FB
00
F6
FC
FB
02
FE
01
F6
FE
01
04
F9
F8
05
00
03
02
FE
07
04
01
07
FE
07
01
02
03
FE
01
FE
FE
FC
02
0C
FB
F8
FE
03
01
FD
03
02
FE
02
01
04
FC
00
05
03
05
FD
05
08
FA
FE
FA
00
FD
FD
FF
FC
F7
FD
06
01
00
FB
FA
09
03
FC
FC
F7
F1
FC
F6
FC
04
FF
FF
01
09
02
05
08
02
06
03
FD
07
01
07
01
02
FD
FF
FE
FB
02
FC
FA
FF
06
FD
03
00
05
FD
02
04
F3
F8
FD
03
FF
00
FE
FF
FD
FD
FE
00
01
FF
FA
FB
F8
FC
02
02
FE
FF
04
02
01
02
06
07
04
FE
04
03
00
FF
01
00
02
FB
FC
FC
FE
FC
FB
FF
00
FC
FB
FE
00
04
09
08
02
05
FF
06
00
F8
05
02
02
FC
F7
FC
FE
FF
F9
00
02
FF
FF
FD
02
04
07
03
04
02
02
03
03
04
02
FE
F9
01
00
05
00
F7
FE
FE
03
04
01
FD
F8
04
01
00
03
07
07
FE
FD
FD
FD
03
FB
FE
03
01
02
F8
02
01
00
02
FA
03
02
01
FD
00
FF
FF
FF
01
FB
FE
00
00
05
FB
02
FF
00
05
04
01
00
FC
00
01
FF
01
FD
FE
FD
03
FF
01
02
FF
02
FF
FF
FF
0A
05
00
FD
01
07
05
02
00
03
01
04
01
01
04
FE
FE
FF
FF
02
FA
01
02
01
00
FB
02
00
FC
00
F5
00
04
FD
FF
F8
FF
02
FE
02
04
02
05
02
01
06
02
FE
FD
FB
02
01
F9
FF
FC
05
FE
FC
02
03
03
00
00
FE
00
02
03
FE
FE
03
01
04
04
02
02
02
05
03
00
02
00
00
FA
FC
FB
FC
FB
03
00
02
FF
FC
FD
FF
06
09
04
09
FE
FB
05
04
FE
02
00
FE
03
04
04
07
FF
02
01
FE
02
01
02
FE
FD
04
01
FF
02
FD
01
FF
05
FC
05
04
03
02
03
01
03
01
02
02
FD
FC
FE
04
00
01
FF
02
02
02
03
04
04
04
06
01
FF
05
05
05
FE
FF
06
02
03
01
00
FF
FA
01
02
FE
03
03
0F
06
FC
02
01
03
FF
FB
FB
F7
00
FB
FD
F7
FC
02
FB
03
FF
FF
05
05
03
FE
FC
00
03
08
F8
FF
FF
FC
01
02
03
F7
03
FF
00
00
00
01
FD
FE
02
FD
04
FF
FD
01
02
02
07
00
01
FF
FB
F6
05
FA
01
00
02
FF
FF
01
FE
00
FC
FF
01
03
07
FF
F9
FF
FC
01
FE
FC
02
02
03
01
03
FE
FB
FE
04
03
00
01
02
03
02
FF
FF
00
FE
FD
FE
FB
06
FD
00
FC
02
01
02
02
01
FF
00
00
04
FE
00
FD
03
01
FD
04
FC
F1
F8
FD
FF
0B
F8
FF
00
03
02
FF
02
FE
FA
FB
03
02
FE
01
02
01
03
02
02
00
FF
FE
FA
FB
FF
FE
FF
00
03
06
02
03
FC
FF
05
06
04
03
FE
00
FF
FF
02
04
FE
05
05
02
02
02
03
01
FF
00
02
0A
03
FF
03
08
04
FE
00
FD
FF
FB
FD
FB
FD
01
03
02
03
05
FF
FE
FF
FA
01
00
03
FA
F9
01
03
FD
02
02
02
04
FA
FA
01
01
03
00
FE
FE
00
00
F9
FB
FA
03
FD
F8
00
00
01
01
01
FD
00
FE
FF
00
FF
05
00
FB
FE
FF
FF
00
03
00
03
FD
01
05
0B
FE
FC
FF
01
FE
F9
FD
FD
FE
00
F7
FF
01
FD
F7
FE
FC
05
FA
01
01
00
05
F8
FC
05
00
01
FD
FC
FD
FF
FF
FA
02
07
06
FD
FC
00
FF
00
FF
FD
FE
00
06
F8
05
FD
FF
05
FB
03
02
03
02
FC
F8
05
03
FE
FB
03
00
FC
01
FB
FC
FE
F9
07
07
02
02
FE
01
05
F8
FC
01
02
FC
FE
00
04
04
04
FF
FE
FF
05
00
FE
FA
FC
03
03
02
FD
F9
F9
01
FD
FB
02
FC
F7
F9
FE
00
05
02
FB
F9
FA
00
03
00
FE
08
03
02
FA
F9
01
01
00
FD
FE
01
02
FF
FD
01
06
05
FA
F6
02
F9
F7
F1
04
FF
02
03
F9
02
0E
0A
0B
FF
00
00
FE
00
05
FF
03
03
05
02
FE
08
09
04
FF
01
04
01
FF
00
FC
01
FB
00
05
01
01
FE
02
05
FD
FC
FD
02
FE
FC
02
FA
FF
02
01
FF
FC
01
FA
01
04
FF
04
F9
F9
FD
FF
00
FB
FD
00
00
05
F4
FE
03
07
06
01
FA
00
FD
00
FC
FE
FF
01
FF
FC
03
FC
00
FD
FF
05
FC
FD
FD
FC
03
04
04
03
FD
FC
04
FB
01
04
FE
FB
FE
03
F8
FB
FC
FD
00
03
05
FB
00
03
00
FA
0D
0C
05
FF
FC
06
03
04
F9
FB
FA
FC
02
00
00
00
FD
03
05
00
FA
FE
01
FE
FE
01
00
00
FF
FC
FD
F9
02
05
FD
FA
FE
FC
01
FC
FB
03
FD
01
00
FB
FE
01
FF
03
04
04
05
01
07
00
FF
02
03
03
FC
FC
F3
F7
FD
00
03
FF
FC
02
FC
02
06
01
02
FD
03
02
01
FF
01
FC
02
02
04
00
F8
F9
FE
FF
F8
FA
FB
FE
FF
03
06
01
00
01
03
03
03
FE
00
00
01
02
F9
02
00
02
FD
FC
FE
FF
02
01
02
FD
03
03
05
FF
FF
FF
08
08
05
05
FB
FD
FC
F6
FB
05
FC
FD
F8
00
04
00
03
01
FF
F5
04
0C
05
03
01
FE
FA
F5
FB
00
07
FC
FE
02
02
06
00
00
02
04
04
FA
FA
FF
02
01
FB
FE
FB
02
00
FE
04
06
03
00
00
FA
F7
04
FC
FE
01
02
04
00
0C
FF
01
01
FD
FF
04
02
06
04
01
F4
F0
07
0D
FE
08
08
FF
0A
00
08
07
01
04
FA
04
02
01
00
F8
F9
01
09
07
03
00
05
03
0C
03
01
00
01
05
05
FE
FD
FA
00
04
FF
02
00
00
FC
00
04
F7
FD
FA
F7
02
08
0A
01
F9
FA
FF
0B
00
00
FA
FF
04
01
04
FE
06
02
FC
02
03
03
07
05
F9
F5
FC
06
FA
F9
F5
00
FA
03
FA
02
05
09
0B
FE
03
FC
01
09
FF
03
FE
03
06
01
03
02
FF
01
FB
02
02
FC
F4
F5
FC
FB
FD
FD
04
00
04
05
FE
06
03
02
04
FD
05
0A
02
01
F3
F5
FA
07
01
FA
FD
03
04
05
FC
00
06
02
02
01
00
00
03
03
02
07
04
FF
FF
FF
02
04
FE
FF
00
FA
02
FC
F9
FA
F8
FD
02
03
01
04
02
00
02
05
FF
04
05
00
FF
08
04
FC
FD
FC
FB
FE
FF
FE
F9
F8
FC
02
01
01
00
FC
F0
FB
04
FD
FD
00
00
00
FC
FF
FB
FF
FF
F4
FC
FB
FB
01
FD
00
00
02
01
04
FF
00
07
FF
FE
01
02
FD
02
07
04
FC
FD
FD
02
05
FE
FE
FA
FD
FB
02
01
00
00
FB
00
00
FC
FF
FE
02
FF
02
03
00
05
00
04
01
01
FF
03
01
02
02
F5
FA
FE
00
03
FD
FC
00
FF
02
FF
FC
FD
FE
FF
03
FD
05
02
FF
00
FE
00
FF
02
00
04
02
04
03
02
FE
FD
FF
FF
01
FD
04
01
03
04
02
03
FE
02
02
01
00
FE
03
05
06
FF
01
01
FE
FF
FE
FD
01
08
01
03
00
01
04
05
03
04
03
FA
FD
FF
04
02
F2
FC
03
FE
FE
01
06
05
04
03
FB
FE
FA
00
04
00
00
03
FE
FA
03
04
01
FE
FE
FC
FE
FE
FF
07
FF
04
04
05
FE
FE
04
FF
07
00
04
FD
02
07
04
01
04
01
FF
02
FF
FD
FE
FB
F3
04
00
04
09
06
FD
FE
FF
FF
01
FE
00
02
FC
FD
05
00
FD
FD
05
02
00
FD
FF
03
06
03
02
FF
00
FB
FC
FE
FE
03
F8
F9
03
01
02
F9
FB
06
05
00
FE
FC
FE
FC
03
05
06
05
FF
02
FD
01
FE
FF
05
01
FC
FD
02
00
05
02
07
FC
02
00
03
00
FC
FF
00
FF
08
0B
01
02
FE
FD
04
02
FD
FE
FC
05
FD
06
09
F5
FC
FF
FE
00
F9
FE
FD
FA
FF
FC
FF
FB
03
00
FE
FF
01
00
05
01
02
07
FF
FE
00
00
02
04
02
02
00
01
FF
00
03
FF
FA
FE
01
00
03
01
04
04
FE
FD
00
02
02
01
FA
FE
FA
FB
FB
F6
FB
FC
FC
FB
FD
05
FC
00
FE
FF
FF
02
02
04
FD
01
04
01
01
04
02
02
01
01
03
06
FD
01
FF
FF
FF
03
FD
00
00
FB
00
05
01
FE
05
FF
01
FF
00
03
03
00
00
03
05
FF
FD
FC
FC
FD
01
FF
04
FD
FD
00
FF
FC
00
03
FE
02
04
03
01
FF
05
05
00
03
FF
01
FB
FD
06
01
FF
01
FB
FF
00
00
00
FB
01
FE
01
02
FF
02
FC
FE
02
05
05
04
02
05
00
04
00
03
05
02
03
01
06
FF
02
FF
01
FC
01
FC
FF
07
FF
F8
FB
FD
00
02
02
04
05
04
00
03
05
09
02
03
01
FE
02
FA
FB
FB
FF
01
FC
F7
FC
FC
F9
03
02
FE
FD
02
01
05
02
FE
FF
FF
FE
FC
FC
FF
FC
FC
FB
01
FB
FB
FE
01
01
FD
00
03
04
04
02
FF
05
06
00
03
00
FC
02
FD
00
06
01
FE
00
FC
0B
F7
00
FE
00
FF
FD
FA
F9
F9
02
05
FF
FD
FE
02
00
FD
FF
05
FE
00
02
FC
03
02
01
05
FE
00
FE
FE
00
01
03
03
FD
FE
FA
03
01
FA
FE
FC
FC
00
02
FF
FB
F6
06
02
05
FF
0A
03
06
FD
F8
FF
04
07
FF
02
00
02
FE
00
04
FD
FF
01
01
04
00
FF
03
07
03
01
FF
03
05
02
01
FC
06
01
FD
FF
FD
01
FD
FD
01
FC
05
FB
FA
01
FB
03
07
FE
FB
F8
F9
F8
02
FF
FA
07
FE
01
FD
01
06
03
00
00
03
05
00
01
02
00
03
04
02
08
FF
FF
F6
F7
02
FC
FF
FA
F7
FC
04
FD
04
FF
FE
FF
FF
08
0A
04
06
00
0F
08
02
FD
05
04
04
05
02
02
05
03
08
04
02
03
04
01
00
01
FE
02
FC
FC
FD
FE
FD
00
01
FB
FF
04
0B
FF
00
02
FF
FD
FB
FE
00
FE
03
02
02
00
01
FF
09
02
0A
05
01
FF
01
02
04
FC
06
03
02
05
06
01
04
04
04
05
00
FE
00
00
FE
FE
FA
FB
F8
FB
03
01
00
00
FF
FF
FB
00
05
06
00
01
03
05
01
FF
01
01
02
02
FB
FD
FF
FC
F8
03
FE
FF
00
05
FA
03
05
02
06
04
01
05
05
03
03
00
01
FC
03
FC
FB
00
FA
F7
00
FF
FC
FA
FC
FF
FF
01
03
0A
FD
02
01
00
05
00
FE
FE
02
FE
FF
FD
FD
FF
FD
FE
FC
FC
FF
FC
FD
FF
FD
FC
FD
FE
FD
FE
FF
FE
FD
FE
FE
FF
00
FB
FC
FD
FF
FD
01
00
FB
FD
01
FE
FE
00
FD
FD
FE
FF
FE
02
FB
FC
FF
FD
FF
02
FC
FC
00
FF
00
FC
01
00
FD
FA
FE
FD
FF
FC
FE
FC
01
00
FD
FE
FF
FC
FC
00
01
FE
FE
00
00
FC
00
00
FC
FE
FC
02
00
00
FE
FF
FE
FD
FF
FB
FC
01
FC
01
FC
01
FE
FE
FC
FF
01
FF
FD
FD
FE
FF
FA
FD
FF
FD
FD
FE
00
FD
FF
FB
FE
FE
FE
00
01
00
FC
FC
FE
00
FB
FC
00
01
FE
00
02
00
FC
FD
FE
FD
FA
FF
FF
FF
FE
FD
01
01
FB
FB
FE
FE
FC
00
FD
FE
01
FE
FB
FD
00
FF
01
FD
01
FD
FF
FF
FF
FF
00
01
00
FD
FD
FC
FE
01
01
01
00
FF
FF
01
FD
FF
FF
FC
FF
FB
FB
FE
FF
FE
FF
FC
01
00
FD
FF
FC
FE
FF
FE
FF
01
FE
FE
FE
FF
FF
FD
00
FA
FC
FE
00
FC
FC
01
FC
FD
FB
FE
FC
FD
02
01
00
02
FD
FA
FC
FE
FD
00
FC
01
02
FF
FA
FB
00
01
FC
FC
00
00
00
FB
01
FC
FE
FC
FB
FA
FE
FD
FB
FF
FC
00
FD
02
FE
02
FF
FF
FE
FB
02
FC
FD
FE
FC
FC
FF
FE
FB
FB
FB
00
FF
FF
FE
FC
FB
FF
FD
FD
00
FE
FE
FE
FE
FF
FF
02
01
FC
FD
FC
01
FC
02
01
FC
01
FC
FC
FE
FC
FC
FC
FD
FD
02
FE
FC
FF
FE
FC
00
FD
FF
FC
FC
01
01
FE
00
FE
03
FD
FC
FB
FD
FF
FE
FD
FD
00
FD
03
FD
FE
00
FB
00
FE
01
FD
FB
03
FC
00
02
FC
01
FF
F9
FE
FD
00
00
FF
00
FC
FE
00
FE
FD
00
01
FD
FF
01
FD
FF
FD
00
FD
FF
00
FD
01
00
FA
FC
FD
00
FF
FC
01
01
FF
FD
FC
FF
00
FF
01
FC
02
FE
FC
04
01
06
03
FB
00
FB
00
FF
F8
FB
01
F9
FF
03
01
02
FF
FD
05
07
04
FD
FE
01
02
00
FF
FC
F9
FC
00
01
FB
F9
00
01
02
04
03
03
05
01
FF
01
00
06
01
FC
FD
00
01
04
FB
FC
FE
02
06
01
00
FE
03
04
06
00
02
FF
04
01
04
FE
F9
00
01
FD
FF
00
04
01
F8
FF
02
00
FB
03
01
FF
FE
FF
04
04
FE
FF
FB
01
00
02
FA
FF
04
01
08
03
00
01
00
02
01
02
FE
FF
02
02
FE
01
FC
FC
04
03
01
FB
FB
FC
01
03
00
FB
FF
05
05
FD
FB
04
03
02
00
03
03
03
02
03
02
06
01
FC
F8
FE
FF
FB
01
08
02
FC
F5
FF
06
04
00
FF
FF
02
08
00
02
03
F9
F9
00
01
04
FF
FF
FF
F7
08
04
FF
FC
F1
FF
03
00
F9
F7
F8
FC
FB
FC
FC
FB
FA
FA
01
03
FA
FD
00
05
05
06
03
04
09
03
02
02
06
02
FD
00
01
00
04
05
03
FF
03
01
05
01
FC
FA
00
04
09
0C
07
00
02
0B
09
06
05
05
FE
09
03
FD
FF
FE
00
FE
FE
01
01
FD
FB
02
FE
FD
FF
FF
03
03
FF
FE
F8
FD
FB
F9
07
09
FD
FF
FF
04
07
00
02
03
FE
FF
FD
04
01
02
FD
02
FE
04
01
FD
05
01
FE
FE
05
00
03
00
FD
02
00
FD
F4
F3
FA
FC
00
01
FE
FD
FE
FE
01
FB
00
FF
FC
FE
F9
04
04
04
02
04
05
FE
FF
02
FF
03
FF
01
01
FE
FD
FC
03
06
01
FB
02
02
FB
F6
FB
02
02
FD
FF
02
FD
FF
07
FF
03
FF
FF
FE
01
FD
FE
FF
04
00
F8
FD
FC
FD
F8
FE
02
04
03
05
04
01
06
03
01
03
FE
03
05
FE
01
FD
FB
02
03
FB
02
FD
FA
FD
FD
00
00
FB
FE
04
FF
01
02
01
09
FF
FE
04
04
09
03
FD
00
F9
FE
0A
05
01
04
00
FE
07
03
00
00
03
FE
F7
F6
FB
FE
00
03
07
02
00
01
FD
FE
05
01
03
04
01
FD
00
FF
FC
02
03
04
FA
FC
FB
00
FC
FC
FC
00
04
FF
FF
FE
01
04
00
00
FB
02
03
04
FD
FD
00
00
06
FF
02
FE
FE
FC
FE
FF
02
03
05
03
FE
00
FC
07
00
05
FE
01
04
02
FF
FB
01
01
F7
F6
02
FF
FA
FC
FA
01
0A
FD
03
FF
04
0E
01
00
FF
02
FE
05
02
01
01
FB
08
02
02
F9
FC
FB
FD
FE
02
FF
01
FD
04
04
00
03
01
02
00
01
04
FB
FF
FA
F8
03
04
02
FD
00
FD
00
00
FD
05
00
FC
FE
03
07
01
F9
FB
FE
FF
FF
FD
02
FF
04
FE
05
08
01
00
02
04
FF
03
0A
FF
05
FA
FC
00
FD
FE
FE
FF
FC
FD
FB
F2
FA
FC
05
FE
FF
F7
F6
FC
FF
FC
00
03
F6
FB
FA
01
02
FC
FC
FD
FF
03
FD
04
02
03
07
06
04
05
FE
FD
FB
FF
FC
F5
FD
FE
00
F2
FA
FD
05
F9
FF
FF
03
03
F8
F9
02
04
00
FD
04
03
00
FB
01
05
03
00
FB
FC
FE
02
02
01
00
05
07
FF
02
01
03
06
FE
FF
FC
FE
FA
FA
F9
00
02
00
FA
00
FD
01
03
01
01
02
03
FF
05
FE
FE
FE
FD
FB
06
05
02
FC
FC
04
FF
FE
06
01
00
FC
01
FC
03
04
00
00
01
03
04
00
FE
FE
00
03
02
FE
FC
FF
01
02
01
02
FC
FF
FF
02
01
00
FE
04
FF
00
03
04
05
03
04
05
00
FE
01
FB
FE
06
FE
FE
FC
F9
FB
01
04
01
01
02
FF
00
05
04
06
02
01
03
01
02
02
FE
FC
FC
00
00
03
08
06
00
FB
04
04
06
FD
FF
FD
FA
FC
00
FE
02
FF
FF
03
FE
FB
FF
03
00
FF
00
FE
FF
05
02
FC
02
01
05
05
FE
01
FE
02
01
FC
FF
02
FC
FE
02
07
01
00
FE
01
00
FF
04
F9
F8
02
00
FF
FD
FB
FF
00
03
00
02
01
03
FD
05
05
FE
03
01
FC
02
03
05
FE
FC
FD
FE
02
01
FF
02
FC
FC
FE
FF
03
FD
FF
03
01
01
00
FC
FF
FF
FE
FF
FF
05
FF
FE
FE
FB
02
03
FF
02
FD
FE
00
00
05
FB
F8
0A
03
FC
04
01
00
03
05
FF
04
FC
03
FD
FF
01
FE
03
FC
02
00
00
FC
FC
FF
FE
FF
FC
F9
FB
FE
01
03
02
00
FF
02
02
FC
FA
FB
01
03
FF
FD
FB
04
FE
00
08
FC
FB
00
06
00
FE
FA
FF
0A
FD
FC
F5
06
01
FC
03
FF
03
FC
02
00
03
FF
FD
FD
01
FF
FB
F7
FD
00
FD
FC
FF
01
03
FC
00
01
01
0C
FD
02
FF
FE
0C
02
0E
05
FC
07
07
09
01
FC
01
04
08
03
01
03
FF
02
FF
03
FF
FD
04
05
00
FF
FB
01
01
FB
FE
FD
FF
FA
FE
FE
FE
09
08
02
01
04
12
06
02
FF
0D
02
03
00
FB
06
06
FD
04
FA
07
01
03
01
02
01
04
00
F7
0A
04
02
FC
FE
FE
FC
FE
FF
05
FC
FC
02
FE
06
FF
05
05
01
FF
01
01
04
06
FE
FE
02
01
07
08
FD
01
FD
01
FD
FE
03
FF
01
07
FB
01
F9
FC
02
FC
FC
00
02
00
00
FB
FF
00
03
FF
00
FF
FF
04
00
FF
FF
03
01
02
01
06
01
03
00
FD
FA
FF
02
FE
01
02
02
FE
02
FD
FE
FF
FE
FF
FD
FF
FE
01
FE
03
03
FF
01
00
FD
03
05
FD
07
06
05
FF
FB
FC
FF
FD
FF
FF
FA
04
02
03
00
FF
04
01
02
01
F9
00
FE
05
06
FB
01
FC
01
02
FF
FC
FC
04
07
01
04
FF
FE
01
01
FF
01
FF
FC
FF
01
00
02
FF
02
04
06
08
06
01
05
05
02
04
08
FE
01
FE
FF
05
01
FE
FC
F8
00
04
08
00
01
05
04
05
04
02
00
00
02
00
02
FB
00
FD
FE
00
FF
01
02
FD
FC
02
06
05
FC
00
FE
FD
02
00
FC
F7
FC
04
FE
FD
FA
F9
03
02
FF
FB
FF
01
02
00
00
00
05
01
00
01
05
08
05
FF
00
02
01
FF
02
09
FF
FD
01
FE
09
03
FD
FF
FC
04
03
FF
FF
F9
FF
02
01
FC
FA
FD
02
01
FC
07
FE
FF
02
03
03
FA
02
07
07
FE
03
FF
FB
FE
07
00
FE
FC
04
0B
FB
03
FE
FB
FD
FB
00
00
FE
FD
FE
FF
02
08
0A
03
06
07
F5
03
FE
06
00
F8
F5
02
03
FF
FE
FB
FF
FF
FB
03
07
FF
FD
FE
00
04
00
08
FB
F7
FD
03
08
04
FD
02
0B
FD
07
02
06
03
FD
00
09
03
00
FA
03
05
FC
FD
FC
01
02
FD
01
02
00
01
FE
FF
04
01
00
FF
FB
01
FF
FD
FE
01
FE
FE
05
0A
FD
F9
FA
01
05
FB
05
FC
FB
01
05
0A
07
F8
FC
02
00
0A
FF
01
04
FF
0B
06
07
02
03
03
01
01
07
01
04
06
0A
04
02
07
FD
FA
03
02
03
02
FF
FD
FF
FF
00
02
01
FC
FD
FF
0E
FD
04
01
FB
06
FA
00
02
FF
FD
00
01
00
05
FE
FD
02
0D
0A
09
02
01
02
03
FD
05
00
04
07
02
01
03
00
05
FF
FF
00
03
02
FC
FD
00
02
FE
FF
03
02
FC
02
06
00
FF
00
06
09
00
00
03
05
05
FD
01
01
00
FF
02
FE
FD
03
01
FD
02
03
04
0D
02
FF
05
00
05
03
03
06
01
FE
FC
FC
FE
00
04
FB
FB
01
03
02
FF
03
FE
FC
FB
03
00
FC
FD
02
02
01
01
02
05
FD
01
01
FF
FB
03
FE
FE
FC
F8
02
01
FD
FD
02
03
03
02
02
04
06
03
FC
03
FE
00
FA
00
05
05
FD
FC
01
02
00
03
00
01
02
00
03
FA
FC
00
FB
FC
FD
03
07
FF
04
00
04
FF
FC
03
05
05
FC
04
FB
FE
03
03
00
F9
FB
04
02
00
FC
01
07
01
FC
FD
03
03
04
00
04
02
05
FE
FF
02
FE
FF
FE
FD
02
FF
FD
FE
FD
08
01
FC
04
FF
FE
FA
FD
05
FE
F5
01
FE
FA
FE
FD
FD
07
09
09
FF
FC
06
03
FF
01
01
03
FD
F7
00
01
02
FC
FF
FC
FE
03
FE
FF
FE
00
03
01
FF
FD
FF
02
0A
04
00
02
02
07
00
07
07
F9
FB
FE
03
02
FF
02
FB
FC
F8
00
09
0C
FC
FB
FF
F9
FA
02
03
FC
F8
F7
04
00
FB
FC
02
04
FD
FD
FD
FF
05
03
01
00
06
02
FB
01
FC
FE
FD
FD
05
00
FF
00
FD
00
0C
04
04
03
03
01
03
FD
FA
01
03
05
FA
FD
FC
00
01
FD
02
F9
05
00
01
02
FD
FF
FB
01
01
FD
FB
03
FE
FB
FC
06
04
FD
FB
FD
05
04
00
0F
07
01
FF
09
05
FD
F8
FA
F7
FA
F3
FF
FE
05
02
FD
FB
FE
04
02
03
01
04
FE
FC
05
01
FF
F9
FC
04
FD
00
01
05
03
FE
FF
FD
FC
06
00
F9
01
03
05
0A
09
01
04
00
03
FF
FE
05
FA
FF
FF
00
03
02
FE
FB
04
02
01
00
F9
00
03
04
00
00
FE
FD
01
07
05
FE
FE
04
07
FE
05
01
04
00
FF
FF
FE
00
02
FF
02
04
FE
00
FF
FE
01
02
04
05
00
03
FF
01
02
03
03
FD
03
06
0F
FE
FE
00
FE
05
FE
FD
01
01
00
00
03
03
06
FA
01
00
03
02
FF
00
FF
03
04
02
03
02
05
02
02
02
05
01
FC
03
03
04
03
00
FF
03
02
01
00
FF
02
03
FD
FD
02
00
FF
FC
01
FC
FE
FF
FF
01
FD
FD
00
00
00
FC
02
FE
02
FF
00
FE
01
01
FD
FF
00
FD
FE
01
FF
FD
FC
00
00
FF
FE
FE
02
01
FE
FF
01
00
FE
02
FF
00
01
FE
FD
FF
02
00
FF
02
FF
FE
02
FC
00
FF
02
02
FE
FE
FD
FC
FF
01
FD
FE
FF
FF
FF
FE
02
FD
00
FF
FD
02
01
FE
FF
00
01
01
FE
01
02
00
02
00
FF
01
03
01
02
00
01
FD
01
00
01
FE
FF
02
00
03
00
FF
FD
01
02
FE
FD
FF
FF
FE
FE
FF
02
FC
02
FE
FE
FE
02
FD
03
FC
01
FE
FE
FE
02
00
FF
00
01
FE
02
02
FD
01
00
00
00
00
00
00
FE
FE
FD
FF
FD
FC
02
02
FF
01
01
FF
01
02
FD
02
FD
02
00
FF
FE
FD
FD
FD
02
FE
FE
FD
FE
02
FE
FE
FE
FE
FF
02
03
FF
01
01
FD
FF
00
00
00
FE
01
02
01
FD
00
00
FE
FE
01
FE
FF
02
01
01
01
02
FF
FF
FD
FF
FF
FF
02
01
FC
00
FC
FC
00
02
FD
FF
01
FE
FF
00
FF
FF
01
FF
FD
FD
01
FD
FE
01
FE
01
01
FD
FE
02
FD
FD
FD
FD
FE
00
02
FD
FC
FD
FD
01
00
01
00
02
02
FE
FF
01
FE
02
01
00
FF
FD
02
01
00
01
FD
FE
01
02
03
02
02
FC
02
FE
FD
02
00
01
00
01
02
00
FF
00
FF
FE
FD
FF
FF
FF
02
FE
FD
00
FD
FE
FF
FD
FE
FD
00
FD
00
01
FF
01
02
FD
03
FE
01
02
FE
FE
FC
01
FE
00
FE
01
00
FD
FF
00
FD
FE
FF
03
FE
01
FF
FF
01
FF
00
FD
00
02
FD
FE
FE
01
FD
FF
FD
FD
FD
FC
01
FF
FE
FF
01
00
FF
FE
02
FF
00
03
FC
01
01
00
02
FE
02
01
03
02
FD
FD
FE
00
FD
00
01
03
FE
01
FE
00
02
FF
FD
00
FE
FF
FF
01
00
02
FD
FE
F7
FC
FE
02
04
F9
03
02
01
FA
FF
08
02
FD
02
FF
FA
FE
FE
04
00
02
03
02
01
01
08
00
FC
03
02
06
FC
FB
02
04
02
03
04
02
00
02
00
00
00
01
06
FF
02
00
06
05
02
FD
05
04
FF
FB
01
06
00
FD
FF
FE
01
FC
02
02
FF
02
00
FD
00
00
03
F3
00
09
FF
02
FA
00
05
FC
01
0B
08
FF
FF
02
04
01
FF
01
07
03
04
00
00
FF
00
FE
FE
01
01
01
03
01
08
FE
FF
FE
FC
FE
00
FE
01
04
00
02
06
05
06
FE
FF
02
FE
FB
01
FD
01
F9
03
02
00
FB
FF
02
01
06
FF
01
06
FD
06
02
04
FE
02
05
04
01
FD
02
06
02
FF
FF
FF
05
02
FE
00
FC
04
FC
FC
FB
01
FE
FE
FD
01
02
01
0A
01
00
03
06
08
04
01
FA
01
07
00
FD
FE
F8
03
00
03
05
04
01
FC
06
03
FD
02
01
02
FF
FB
FF
F8
FC
03
FE
FD
F9
02
04
00
01
FF
02
FE
03
06
07
02
06
00
FE
FB
FF
FD
FF
F6
F8
FA
FC
05
FD
03
00
07
04
FC
FE
FF
02
04
F9
FF
FB
FE
01
FF
03
FC
FF
01
06
05
FB
FE
00
04
FF
FC
03
06
FE
01
00
02
FE
06
00
FC
FD
FB
FE
FA
FD
01
00
FE
FE
04
03
06
FE
00
00
00
0F
FB
FB
FD
02
03
02
FE
00
00
FE
02
01
03
03
01
02
05
FF
00
FD
FF
01
FF
04
FF
FD
FE
FF
03
02
FC
00
FC
FF
03
00
01
FE
01
FA
03
04
05
02
05
01
00
03
00
00
03
03
FE
04
01
F6
FA
FF
FF
FE
FD
FD
00
FC
00
06
00
04
02
FF
03
01
00
01
01
FD
F9
FC
02
FE
FF
FF
FB
02
02
04
FE
00
06
FD
06
00
00
FE
FB
02
04
FF
02
FE
04
00
FF
FF
02
05
00
FF
03
03
FF
FF
F9
FE
02
F5
FF
FF
01
FB
F3
F5
04
01
FE
00
00
01
00
01
FF
FA
FB
FF
FD
FD
FA
FD
FC
03
FD
FF
02
02
00
00
03
03
06
04
06
FE
FF
00
01
08
00
FF
02
02
04
02
02
01
01
05
04
03
FC
FE
02
01
06
FE
FF
00
04
00
00
03
01
03
00
02
FF
F9
FF
03
03
FF
F9
FA
00
02
FF
EB
FA
0A
04
00
01
00
00
FA
00
04
02
FD
00
04
05
05
FE
FE
03
FF
FF
00
FF
02
FF
FF
FE
FE
FB
01
FF
03
FF
FB
FD
01
00
FD
FD
FE
02
03
04
FE
04
03
02
02
02
03
FF
FC
FD
FC
01
FB
FE
FD
FE
00
FE
04
07
07
03
00
03
01
04
06
07
00
00
FC
05
01
FA
FB
FB
08
FD
07
02
02
01
FE
03
09
09
F8
FE
04
FF
01
FD
FB
03
FF
FC
01
03
01
FC
02
01
06
05
FC
FD
09
04
04
FD
FE
04
03
01
FF
00
FF
03
06
02
04
00
FD
FD
FD
F8
03
FD
0A
02
FD
FF
03
04
01
FC
FA
02
02
FF
FE
02
0D
00
02
02
F5
F6
F9
00
04
02
04
03
FE
FA
02
00
FF
FB
FB
F9
F8
FA
03
04
F7
FF
02
FF
06
FB
01
FE
01
FF
FF
01
FE
03
00
00
FE
FE
FC
02
03
05
FD
01
07
FF
07
FC
FC
FD
FB
FF
F7
F9
FD
00
03
01
02
02
01
00
FF
01
FE
00
FC
FF
FC
00
02
FC
FC
00
04
01
01
01
05
00
FD
03
05
02
FF
00
FF
01
FD
FE
03
00
FE
FE
01
00
FD
FD
00
03
01
FD
FD
03
00
FB
FF
04
02
F9
FF
03
00
FF
F5
FE
FC
FA
F9
FE
F7
FC
03
04
04
02
03
04
00
01
02
01
FE
01
03
02
FE
01
03
07
FE
01
FD
01
05
00
FF
02
00
00
00
00
07
03
00
02
FF
FE
01
01
FF
01
FF
FF
01
FD
FF
00
FC
00
02
00
01
FD
02
02
01
FE
FD
02
FF
00
FF
FD
FD
01
02
01
FD
02
02
FF
02
01
FE
03
02
FD
00
02
00
01
FD
FE
00
01
FF
FC
01
FE
04
00
FE
FF
02
03
00
01
FE
00
03
00
FE
02
01
01
02
FF
FE
FE
02
FE
00
FF
FF
FF
FF
FD
FC
FC
01
FF
00
FF
FF
FD
03
FD
FB
03
FD
FE
01
FE
00
FD
02
FE
01
02
FF
01
01
FE
FD
00
01
FE
FD
FC
FF
03
00
01
FF
03
01
01
FE
FF
00
02
01
FE
FD
02
FE
02
00
02
FF
00
FD
FE
02
02
00
FE
01
03
FD
01
03
FF
03
FE
01
02
FE
FD
00
00
FE
FE
FF
FD
00
00
00
FD
FE
02
00
02
01
01
FD
FD
00
FD
03
FE
01
FC
FE
01
00
01
FC
01
01
00
00
FC
01
FD
01
FF
01
FE
FC
00
02
FD
01
00
FD
01
02
FD
FF
FC
FD
FE
01
03
FC
FE
FD
00
FF
02
FD
FD
02
02
FF
01
03
FF
01
01
00
01
00
FE
00
FF
02
FD
FF
FD
02
03
00
02
02
FF
01
00
FE
FD
FC
FF
FD
FD
FD
03
FE
01
FF
FD
FE
FE
01
FE
FD
FF
FD
02
FD
03
FD
FD
02
FD
01
FE
FD
02
FF
01
00
00
FD
02
FD
03
FF
FF
00
00
FE
FF
FF
02
FD
02
01
FF
02
FD
FF
01
FF
01
FF
02
FD
FE
FD
FD
02
FE
FF
FF
FE
02
01
02
02
02
00
FF
00
02
FF
FC
FD
02
FD
02
00
FE
FF
FF
FF
FE
FD
FF
00
01
FF
03
FC
FF
FE
FD
02
02
00
00
FD
FE
02
01
00
FF
02
03
FD
02
FD
00
03
FD
FD
03
00
00
01
FE
FF
00
FF
FF
02
FD
00
02
FD
01
02
FD
FD
FC
01
01
FE
00
02
00
01
FE
01
FE
01
00
FD
FE
FE
FE
FE
01
FE
FD
00
01
03
00
FF
01
FE
01
FF
FD
FD
FE
FB
FB
01
01
FF
FF
FE
03
00
02
05
03
FE
00
00
00
06
FF
04
03
03
FE
02
03
FF
FD
FE
00
FF
FD
00
02
FF
F8
FD
FF
00
02
FE
FD
FE
FD
04
03
FD
02
02
01
00
FF
02
03
08
FF
FF
01
FF
02
01
00
02
FF
03
02
FD
02
FF
FB
00
00
FF
FC
04
01
FB
FE
02
02
03
04
02
04
02
F8
00
02
02
00
FB
01
FE
FC
FF
FF
04
05
07
01
FF
00
06
02
08
FF
FD
02
02
0B
01
FE
FF
FC
02
04
FD
03
04
04
FF
FD
F8
FC
FE
FD
FF
00
01
04
FB
05
04
04
06
05
FF
F8
05
FD
FE
F9
FD
F7
03
07
03
0A
0D
00
04
04
0A
08
FD
01
06
04
FB
00
03
0A
05
FB
03
00
04
05
00
FF
05
02
FF
00
F6
04
F8
FD
FD
F9
03
F4
F4
FD
FB
03
FE
FC
FE
FA
FE
FD
01
00
00
FE
05
01
FF
01
01
07
06
02
04
07
01
06
03
05
05
03
00
FE
03
08
03
F6
FE
FF
02
FB
FF
03
FE
EB
FA
07
06
FC
FD
04
0C
02
04
03
07
FC
FE
FC
FC
FE
03
04
F9
FE
00
03
FC
06
00
00
00
04
03
FF
F9
04
02
01
FE
FF
FF
FF
02
03
00
03
FC
FE
FC
FF
02
FF
03
00
04
01
04
05
FF
FF
00
03
04
01
02
FE
F7
00
FF
FC
02
05
00
02
01
FC
02
FE
04
FD
FC
01
05
04
FF
FD
02
03
FD
01
FD
FD
02
00
01
01
FF
03
02
02
FC
FE
04
00
FF
FE
FA
FE
03
03
FD
00
04
05
03
00
00
FD
00
FE
FA
FE
00
00
FE
FE
FF
00
04
02
02
04
06
02
04
FA
01
05
02
FF
FC
FB
FE
00
02
00
04
FC
00
07
02
02
02
03
FC
FF
00
FE
00
FC
FD
04
FF
FE
03
FE
07
00
FE
FB
FE
FB
01
FD
FD
02
01
FE
02
FD
FF
FE
00
01
FF
FE
FD
01
03
02
02
01
FE
01
FC
00
FD
FF
FD
FD
01
FD
02
FC
FE
00
FC
FD
FC
FB
02
01
01
00
FE
FC
FC
FF
02
FD
FD
FD
02
00
FD
FF
FE
03
FE
01
FD
FF
FF
FC
00
FE
00
01
FE
00
01
FD
02
FC
01
FF
02
FC
00
00
FD
FD
FF
01
FE
FB
01
FD
FF
FD
01
FF
00
02
01
02
FF
FE
02
FE
01
FF
FD
FF
FF
01
FD
01
FE
FF
FF
02
02
FF
01
FF
FE
02
00
FE
FE
01
01
FF
00
FC
00
01
FC
01
00
FE
FE
FC
02
FF
00
FE
02
FD
FF
FE
FD
FE
FD
FC
FF
01
FF
FD
02
02
FD
00
FF
FD
FF
FE
FD
FF
00
FF
FD
00
FF
02
FD
FE
00
00
02
FF
01
FC
00
FF
FD
01
FC
02
FB
FF
00
FF
01
00
FB
FD
00
FE
FC
01
00
03
00
00
00
02
FE
FD
FF
02
00
02
01
01
FE
FD
02
FF
FE
00
FD
03
FE
FB
00
FF
FD
FD
FD
00
FC
02
01
00
00
00
00
FE
FF
00
01
FE
FF
02
FD
02
FE
00
FD
FE
FD
03
FF
FE
01
FD
03
FF
FE
FC
FF
02
01
FE
FE
FE
00
00
00
FF
01
00
00
01
02
FF
FC
FE
FF
FD
01
FE
01
00
01
01
FD
FE
01
FE
FF
01
FD
00
FF
02
FF
FD
FD
01
00
00
FE
FE
01
FF
01
FE
01
FE
FF
00
01
00
01
FE
FE
FE
01
FE
02
FD
FF
FE
03
00
FE
01
FD
FF
01
01
FE
FF
FE
FE
00
FD
02
FD
FD
00
FF
FF
FD
FF
FE
FF
FF
03
FC
00
FF
00
FD
FF
02
FF
FF
FF
FF
FE
02
01
FF
01
FD
02
01
FE
00
FF
FC
FE
FF
FE
FE
00
01
FF
01
01
01
FF
FD
FD
FE
00
FF
00
01
FE
01
FD
00
FC
FF
FF
FE
FF
00
00
00
FB
00
01
FF
00
FC
FC
01
FD
FE
03
FF
06
06
03
01
08
FB
FB
FD
02
05
F3
F8
01
03
03
03
00
01
00
FD
02
FE
01
FF
FF
03
FC
03
02
03
02
00
03
00
04
03
05
03
04
06
FF
00
FD
01
FD
FB
FD
02
01
FE
00
FF
03
FE
00
03
06
04
01
01
07
04
FE
FE
04
01
00
02
FD
00
07
FF
02
00
FF
0B
02
FF
03
01
F2
F6
FC
00
01
F1
00
06
00
FF
FC
03
03
05
01
00
FC
FD
FE
01
04
FE
01
F9
FA
06
02
04
FF
01
00
FE
FE
00
03
01
00
01
FE
FC
01
02
FF
01
01
FE
02
01
03
03
05
06
FC
00
01
FD
FF
FB
FF
FA
01
FE
03
05
05
FC
F7
00
FF
FD
FE
FC
FD
FC
FA
08
05
02
FC
FF
04
FE
00
FD
01
05
FF
FF
02
FF
01
FE
02
03
04
FD
F8
02
00
FF
FE
FC
FE
06
07
03
07
FA
FF
01
01
04
04
FB
FC
FD
FC
FF
FF
FD
00
01
FB
FD
FE
08
04
04
FF
00
05
00
02
FE
FB
03
00
02
05
FE
04
FD
FB
01
00
03
07
FA
00
F9
03
0A
01
FF
FE
F9
FC
F7
FC
FE
00
03
04
FF
FB
05
01
FD
FF
FF
03
07
04
00
04
FB
FD
FE
FD
04
00
01
00
FD
FE
03
00
FF
FE
FC
03
00
02
03
08
02
02
00
03
04
FD
FF
FB
FF
FF
FA
FC
FA
F5
FD
04
04
02
FF
02
01
05
00
FF
FF
FE
02
06
05
05
03
00
03
03
05
03
FE
03
00
01
01
02
01
05
00
FF
FF
01
01
FE
04
05
FF
FD
03
00
01
03
00
03
02
FE
FF
03
04
05
FF
06
00
FC
06
FE
FD
02
F9
00
01
FB
FF
FE
FA
02
02
02
02
FF
03
FF
04
07
00
00
02
00
07
01
FF
03
FB
FC
00
02
02
FF
05
FF
FF
04
02
02
01
FF
00
FE
02
02
FD
FF
FA
01
FD
F9
FD
04
03
FD
FC
07
06
04
09
FD
01
03
08
03
03
04
02
07
FE
02
FD
FC
02
FF
03
04
FD
FB
02
05
07
04
04
04
01
02
FE
FE
01
05
05
00
03
FE
04
06
01
FF
FB
02
06
03
FF
FC
FD
02
00
01
FE
FE
02
01
FF
FE
03
FD
02
06
02
FB
01
00
00
FF
FE
01
00
03
FF
02
03
01
04
04
01
01
04
03
FF
07
04
00
04
0B
08
04
00
FA
FC
FE
02
01
FE
F8
00
07
FE
FE
FE
FF
01
FF
01
F8
FE
FC
02
0A
06
09
04
FF
FE
03
01
FA
08
FE
02
FC
02
02
01
FE
06
FE
02
09
FD
02
00
04
FE
03
05
0D
09
03
04
00
01
F8
FA
02
04
03
FD
03
01
02
03
03
0B
01
01
FF
FF
06
FD
FE
FE
FF
F8
FC
01
FD
FD
F9
04
03
05
03
01
05
00
07
09
0C
01
FD
01
06
09
0C
03
08
05
01
01
FE
FF
FD
FD
FB
FA
FF
FF
FE
FD
00
06
FD
F9
FF
04
02
01
FF
04
05
0A
0B
06
02
FD
01
00
FE
FE
FD
FA
FD
00
09
05
FF
FD
FD
07
06
FC
FF
FB
FF
01
02
FF
FF
FF
FC
03
05
04
05
0A
04
FE
FE
00
FB
04
FD
FF
07
02
09
00
07
05
01
02
FC
FB
01
03
00
01
FC
FF
FF
03
01
F8
01
05
04
FF
03
FE
00
00
08
05
01
FD
FC
00
05
02
05
FE
03
01
02
04
06
03
FE
02
03
01
03
00
03
00
06
05
05
FF
FF
00
03
06
01
00
FB
FE
01
09
02
03
01
03
03
00
02
FE
FC
08
01
FE
04
07
FB
00
00
07
08
FE
FD
00
05
04
06
FE
05
05
FE
FE
00
FF
01
FC
03
02
02
04
06
03
01
FF
01
03
05
06
FC
FB
FD
02
06
02
FF
FC
03
FE
04
02
01
00
01
01
03
07
03
FE
FB
01
01
FF
F8
FD
FD
FE
01
00
01
01
FF
06
FF
00
00
05
FB
00
03
00
06
03
FE
FE
FC
FF
FF
FF
00
00
FE
FF
00
00
01
00
03
02
00
04
03
04
04
06
02
06
01
01
03
04
02
02
00
04
01
FD
FF
FD
02
01
00
05
06
07
05
FF
02
06
FF
FD
03
00
FE
FF
FF
FE
FE
FD
02
03
FE
02
06
FE
05
03
00
00
FE
06
01
F4
FE
06
FD
04
06
07
03
02
05
02
FA
FE
00
03
FE
01
03
FD
FA
02
03
01
FD
FD
FF
FD
00
FC
08
05
03
02
02
FF
02
01
01
06
FF
FE
00
03
09
04
01
05
03
04
04
03
00
FE
FA
FC
FF
FE
05
09
FF
02
FF
03
FD
FF
04
02
06
FB
00
03
05
04
04
FE
00
00
00
FD
03
00
FB
04
FF
FF
FE
F9
FE
FD
FA
F9
FC
FE
FD
03
01
FD
08
04
08
04
01
FE
FE
06
0B
06
07
01
FE
03
00
01
03
05
01
FB
00
03
07
04
04
05
FE
FD
02
04
FD
01
FA
06
01
07
0B
03
01
FF
08
03
00
FE
00
FC
07
FE
09
08
FC
FE
FE
FC
02
F7
F8
FD
FF
00
FF
FD
FC
FB
FD
03
00
FD
03
FF
01
FD
05
FC
FA
05
FE
05
03
03
07
00
03
00
02
02
FD
F9
FE
FF
00
01
FE
05
04
03
02
FC
02
05
02
FD
01
FD
FF
F8
FC
FF
FE
01
00
01
04
01
04
FE
FF
00
00
00
01
FE
FE
00
FF
03
FF
FE
03
FF
02
02
03
FF
FE
02
03
00
04
05
01
FF
FF
02
04
00
00
FF
04
01
02
01
FF
06
02
02
00
05
FD
FF
FE
04
02
01
00
FC
02
00
01
02
00
00
FF
FD
01
FD
01
FC
05
01
FF
04
05
02
00
FF
00
07
01
02
03
F9
FE
01
00
FF
00
FF
01
FE
00
01
04
02
03
FF
02
0B
FD
05
06
04
05
FC
00
FE
04
02
FC
FD
03
00
FC
02
FF
FB
FC
FF
00
02
03
06
02
FF
06
02
01
05
00
04
FF
FB
FE
00
04
FF
F9
02
01
02
02
FA
FF
05
03
05
03
02
00
00
04
FF
00
FD
05
03
FA
FF
00
01
04
FF
FC
05
02
00
03
02
05
04
00
02
00
03
06
FF
01
FE
FF
FE
02
01
FA
04
07
03
FD
FF
FF
02
02
FF
04
02
0C
05
04
06
FE
FF
F9
F4
F9
03
FD
06
FB
05
FF
00
03
FF
04
FC
FE
FE
00
FF
01
01
00
FE
01
04
06
FC
FB
FF
01
FE
FB
F9
F6
02
00
FF
FD
FB
FD
FD
04
00
0B
FE
FF
00
02
0A
00
FC
F7
FB
F5
02
04
00
00
05
01
06
FF
FE
0D
07
02
00
FE
03
04
02
FF
FE
00
F6
F8
FA
01
02
FF
F9
08
04
01
08
FF
04
07
01
06
01
02
04
02
00
00
FD
01
05
FB
01
FB
FA
FB
04
02
FD
FB
FA
FE
FC
02
00
FF
FC
FD
FD
02
F7
02
FB
FA
02
FB
06
08
02
F2
FA
06
02
05
F8
FD
FF
F7
FF
00
01
FF
03
02
FE
01
00
03
00
00
01
FF
09
04
01
F8
F7
00
01
01
FE
03
05
FF
FB
03
00
01
00
FA
FF
02
05
02
FE
06
02
05
FD
FD
FE
01
00
FD
FD
05
01
02
02
FE
FF
01
FF
02
FF
05
FE
FD
FF
FF
0B
FE
FE
07
04
10
01
00
01
03
01
FE
FB
02
03
00
00
00
FF
FF
00
05
02
01
FF
FC
FF
FC
06
0B
07
FD
05
03
02
03
02
FE
FB
01
FF
00
FD
06
FC
FD
04
05
00
00
00
F8
02
06
05
FC
FE
FF
00
03
FA
FB
FC
FC
03
FE
FE
01
04
02
FB
03
05
01
02
FD
FE
FB
FD
02
0D
01
03
03
04
05
03
FD
00
05
01
06
01
04
FB
FD
01
06
00
FB
FE
02
00
03
04
03
00
04
FF
FF
04
02
01
FE
01
FC
08
FF
FC
03
FF
06
06
FE
FF
FF
02
01
05
05
04
03
FC
FF
03
06
FD
02
03
FE
02
00
FD
00
FF
FD
FF
04
01
00
00
FD
01
02
FE
01
F9
FF
05
00
FD
F8
FC
02
FD
FF
FB
FE
FF
01
01
FF
02
FE
00
FF
03
03
02
03
FF
FD
FE
03
00
FC
05
FD
FD
00
FC
05
FF
00
01
FD
0C
0A
FD
FE
01
F8
FB
00
03
F7
FD
01
04
03
F8
FC
FE
03
00
03
FD
00
00
00
02
FB
02
01
03
FB
FC
FD
FF
FF
04
FF
FE
FE
F8
FF
FD
03
FB
F7
FF
FB
00
03
FF
01
FE
02
06
0D
0A
FC
04
02
FD
FE
FF
08
00
FE
FF
FE
06
05
01
FF
02
04
00
FD
07
FF
00
F9
00
06
FA
FE
00
02
FC
02
01
00
FD
FD
0D
05
03
06
05
0C
03
03
09
04
FF
FF
04
09
FE
F7
FD
01
FF
FF
FD
FD
01
05
FC
FB
FF
07
FF
FA
F7
FE
FC
FF
F9
F9
FC
02
03
09
FF
FE
FA
FC
05
01
04
07
FC
FF
08
0C
04
FD
00
FF
01
09
FB
03
02
0A
08
06
06
01
06
05
01
FF
04
03
06
01
08
05
00
FF
F6
F5
04
02
FE
FD
FF
FE
FE
FF
FF
FF
FD
FC
00
03
0C
00
07
03
01
04
F9
01
FE
03
00
FD
01
00
03
04
00
03
06
05
0A
02
00
04
01
FF
05
FE
03
07
00
FE
FD
04
05
02
FE
FC
02
01
FA
02
01
FE
FD
FF
02
FF
00
FF
05
FC
01
02
05
05
FB
00
04
08
FE
FD
02
04
FF
01
FF
FF
01
05
01
06
06
02
07
06
03
03
01
00
04
02
FF
01
FE
FA
FE
FD
FB
02
03
FC
01
04
00
02
FE
00
02
00
FF
FF
FE
F9
01
03
01
02
04
04
FD
FE
FF
01
FE
FD
02
FF
FA
FC
F9
FF
03
00
04
06
FF
FE
01
FF
04
0B
06
FE
01
01
02
01
01
FF
03
F5
F0
FA
FE
FD
06
06
06
06
FE
06
FF
04
01
07
05
FA
00
04
FF
FD
FB
01
01
01
FC
FF
FF
03
00
02
02
FC
FD
FF
02
FD
FF
06
02
FD
FF
00
04
FB
01
02
06
01
FF
06
06
02
01
01
00
FF
07
01
02
02
07
03
03
04
08
04
07
FF
04
FC
F4
FC
01
FC
F4
EF
03
00
FE
00
FD
FF
00
F7
FF
03
FE
FF
FF
06
07
02
FC
F8
06
05
05
00
FD
07
01
04
00
F7
FD
FD
FF
05
04
FC
FE
05
04
09
04
FF
01
03
04
05
04
00
F9
F8
05
02
FA
F8
FE
07
07
04
FC
05
06
01
05
05
04
06
04
02
06
FB
00
04
04
03
01
01
07
07
04
01
0B
08
00
FF
04
00
16
03
FE
02
EB
00
FF
02
00
EF
FA
F6
00
06
F6
03
FF
FB
01
FA
FA
FD
FF
00
FD
03
03
01
FD
FF
09
FE
00
01
05
08
02
02
04
0C
04
FF
FB
FF
03
FD
FE
F9
02
F6
FA
F5
F3
FE
09
FD
04
FC
FC
06
00
00
04
FE
01
FA
02
FF
03
05
00
05
05
0B
02
FF
FD
FD
05
05
FC
03
03
02
F8
02
02
04
FC
FB
FE
FC
FB
F8
FC
00
00
04
0C
FC
FD
00
FA
06
07
06
FE
FA
07
04
00
F9
FD
F5
03
FF
FE
F9
F7
06
02
00
03
06
04
02
FE
01
01
02
02
FD
04
09
02
FE
FB
FF
FF
02
01
03
FC
FB
07
04
06
01
03
05
FF
02
06
08
04
FF
00
FC
00
01
05
01
01
07
00
FD
00
FA
FC
01
03
08
F7
03
00
FF
03
FE
01
FC
FE
02
FE
07
02
04
06
01
03
FC
02
02
00
FB
04
FF
01
FC
00
01
00
01
02
06
02
02
01
FB
02
00
FE
FD
06
FC
03
04
02
FC
F8
FE
FC
00
FC
FF
FC
FC
02
FD
02
FD
01
04
FF
01
07
00
01
00
05
FD
00
02
FF
03
FD
FB
FC
FC
01
02
09
04
01
FF
07
02
04
06
02
07
FE
FF
00
01
01
FE
02
04
01
00
01
00
FD
01
09
03
02
FF
00
FF
FD
03
04
00
03
03
FF
05
03
01
04
FD
03
01
01
00
03
FB
02
FE
00
04
02
04
FC
04
00
03
FE
FA
FE
FD
03
04
FA
FC
FF
00
03
0E
02
02
FE
F9
01
00
FB
FC
01
03
FE
02
FC
FA
05
05
05
03
03
02
00
FD
FC
03
04
03
01
05
FE
02
01
01
09
03
03
FD
FD
08
FD
04
01
FD
FB
02
FD
FD
FB
FC
FA
0B
08
09
05
06
09
06
FD
02
FD
02
FE
FD
FD
02
04
01
03
00
06
01
00
02
FE
08
02
00
FD
FB
02
F9
06
F9
FF
FE
F8
FF
04
FB
FC
FC
01
FD
07
05
00
00
00
FF
03
08
04
04
02
02
01
01
02
FF
FE
FD
FF
FF
00
03
08
02
06
00
F6
04
03
FE
FB
FE
04
08
0A
05
FD
01
FA
F3
FC
00
FA
EC
F3
FA
FC
05
02
FB
FF
FE
03
FA
F8
FE
FD
F8
FA
03
06
09
F4
FE
FE
04
07
0A
05
02
02
FC
FE
03
FF
00
F8
05
FF
02
FD
04
05
00
01
FE
FC
02
FE
FC
FE
FE
01
04
04
04
F9
06
00
01
FF
FD
FE
00
00
FF
01
FD
FF
FC
00
0D
02
00
03
FF
05
06
04
02
04
FF
06
05
03
FD
00
03
00
05
FF
FF
FF
FE
01
03
08
00
FE
FE
FC
02
08
08
FE
FC
06
05
07
FF
02
FF
08
00
FD
FD
FF
EE
F6
01
01
0B
F8
FB
FF
FF
04
09
02
04
01
05
00
00
03
FD
FE
06
00
03
FF
02
02
FE
FA
FC
04
02
06
02
FF
01
04
03
FE
00
02
02
FD
FE
00
01
FF
02
04
04
03
FE
01
FD
FE
FD
FF
02
FE
FE
02
00
FE
03
FE
03
00
FF
02
FD
FE
02
FE
00
02
FD
FF
FF
02
02
FF
00
FE
FF
FF
FE
00
FF
01
01
01
01
00
FF
03
FF
00
01
FD
02
01
FE
FE
FE
FD
00
FF
FD
FC
03
02
FE
FF
FD
FD
FD
FE
00
02
00
FD
FF
FE
FD
00
00
FF
FD
03
00
01
02
FD
02
FE
00
FF
01
00
02
00
FF
02
02
01
03
01
02
02
FF
FE
FF
00
FF
FE
FD
02
FF
FE
00
FD
FF
FF
02
02
FD
FD
FE
02
02
00
01
01
FF
FE
FE
FF
00
FF
00
01
FD
FF
03
03
03
FE
02
02
FF
00
FD
FD
FF
FD
FF
03
02
FE
02
FE
02
01
FD
00
01
00
02
02
03
02
02
00
FF
FE
01
FE
00
01
01
01
FE
03
00
01
00
FF
FF
FD
01
FE
01
FF
02
FE
00
03
FD
01
FF
FE
FE
FF
FF
FF
FE
FF
00
03
03
FF
02
FF
01
01
FF
00
FD
FE
00
FD
01
02
FF
FD
01
01
FE
FF
00
00
FD
00
FE
FF
FF
01
FE
FE
FD
01
02
03
FE
01
03
FE
FE
FF
FE
00
02
FF
01
FE
FF
00
FE
FF
02
00
01
FF
FD
FF
02
02
01
FD
FE
FE
02
FD
02
00
FF
00
00
00
00
00
00
FE
FD
FD
00
FE
FD
03
FE
01
00
01
FE
FD
FE
FF
FE
FD
FE
FD
02
FF
FD
FE
02
FF
02
FE
02
00
FF
02
FF
FE
FE
FF
FF
FE
00
FE
00
FD
FE
FF
FE
02
FF
FD
FD
01
FD
FE
01
FF
FF
FF
02
FF
01
00
00
FD
00
FD
FD
FF
01
FD
FF
FE
01
00
01
FF
01
02
02
FE
FF
FE
FC
02
FD
02
FE
FD
01
02
03
00
02
02
FD
00
FD
FD
00
01
00
FC
01
FF
00
00
FE
02
FE
FE
FF
FE
02
FF
00
FF
03
FF
FD
00
FF
00
03
02
01
03
03
FE
02
00
00
02
04
02
00
02
FD
02
FF
FA
FF
FD
F7
FC
07
05
FF
FD
FB
FE
01
03
06
06
00
01
02
01
FE
FD
02
00
00
07
01
FC
FC
01
07
05
FF
02
FE
FE
00
FE
01
FC
FE
FB
FD
02
02
FD
FE
01
FC
01
FF
FE
05
01
02
00
FD
02
01
FC
FB
FE
03
03
FD
FD
03
02
FF
07
01
FC
01
FF
01
01
FD
05
04
F9
FA
FF
03
02
FF
03
00
04
02
04
FD
FB
00
01
FD
01
FF
00
02
FF
FB
07
05
06
F9
F8
03
01
01
FE
FE
03
00
FE
01
FF
FF
02
05
01
07
00
FB
FE
04
02
FE
FF
FF
FC
01
FE
03
FD
FD
01
FA
02
04
00
06
05
FF
FF
FE
FB
F6
01
00
FD
FD
00
FD
FF
00
FB
00
FC
04
FC
FC
08
04
01
FC
03
09
05
02
F9
F9
05
08
00
FE
F1
00
01
00
FB
FA
FE
FE
01
01
FD
01
FA
00
04
FD
00
01
04
03
02
01
01
01
FE
F7
FD
FE
04
FE
F7
00
03
05
F7
FD
01
FF
00
FC
01
03
FF
FE
01
00
01
FD
03
03
02
01
03
02
FA
FC
FA
09
07
FC
FE
F8
0A
02
06
09
01
FF
FF
08
00
FC
FD
FB
00
FE
00
09
F8
FE
01
05
05
02
FF
FE
01
00
FF
01
FE
02
00
FF
04
04
01
FA
F3
FC
FE
06
03
FB
F9
FF
06
03
F7
FB
FE
05
01
FF
01
00
03
05
F8
FE
FF
00
00
FB
01
04
04
FB
FF
01
04
01
FF
FD
FD
04
01
FE
FE
FD
FF
FD
01
00
FE
FD
01
FC
F8
01
04
06
FF
F7
05
01
00
FF
FC
FF
FF
04
03
FF
01
FD
01
01
00
0C
01
FA
FB
F3
00
06
FF
04
FF
01
01
FF
05
03
FF
01
02
02
FF
FB
FD
01
FF
FE
FF
FE
01
02
01
FB
01
01
FC
FB
03
05
00
00
F8
FD
04
02
02
01
FD
FA
FF
02
05
04
04
02
00
01
03
02
01
FE
FF
F9
FA
FE
02
FA
05
FD
F9
00
03
04
FE
02
FF
03
08
06
01
FC
FF
04
FF
FE
02
FF
FF
02
01
03
00
04
FE
00
01
FD
01
FF
01
00
00
04
01
00
05
02
FC
FD
04
00
FE
FE
FD
FF
04
FF
04
FF
03
00
FE
04
01
03
05
02
09
00
FE
FC
00
00
FC
FF
07
FA
04
00
F8
FF
00
FD
02
F9
01
01
FE
04
FF
02
07
FD
FF
03
01
FD
04
F9
09
06
07
FF
FD
08
00
01
00
00
00
04
FE
00
00
00
00
00
02
02
01
FC
FE
FC
FC
00
05
FD
FC
02
FF
04
00
03
04
FD
FF
04
01
06
05
00
02
FC
F6
F4
01
00
FD
FD
01
FD
FE
01
01
01
F9
01
02
FF
05
02
FE
04
03
06
07
01
F9
F4
FC
05
01
F9
F6
02
FF
00
02
FC
00
FC
FE
04
FF
FF
05
04
02
02
03
06
06
FE
FC
00
00
03
02
FA
F9
01
04
02
FE
01
06
03
01
FF
FE
00
FD
04
04
01
FE
FD
FF
05
00
FA
FC
03
FD
03
FF
02
FE
02
02
04
07
03
01
04
04
04
01
01
F8
FA
FC
03
04
05
03
F7
02
01
03
04
01
FF
FF
05
00
01
01
FC
01
FB
02
05
01
03
00
00
02
01
00
FA
F3
FA
FC
07
0C
01
FA
04
05
FF
FE
02
FE
00
FE
FE
FC
01
01
01
F8
00
01
00
FF
02
FE
03
03
FC
FE
FE
00
FF
01
FB
00
FC
03
FD
FB
03
FF
FD
00
01
FE
00
06
05
FC
03
06
05
FD
FE
03
00
FF
03
06
02
FF
03
FF
F8
01
01
01
00
03
01
01
00
00
FB
07
02
FA
04
FF
FF
FF
FF
0B
04
FC
00
FE
FB
FE
04
FE
01
FB
01
00
01
FF
05
03
FB
04
04
FD
F9
04
00
00
FE
FB
FD
04
02
01
FC
07
01
00
00
01
02
01
03
05
FF
02
01
FF
03
01
FC
FE
FE
06
00
FB
03
03
00
F8
08
08
00
FF
00
03
FF
01
00
03
00
04
04
FF
01
FF
08
01
FA
04
FF
05
FF
FF
FF
04
02
FD
01
FD
00
00
FD
FC
FE
FA
02
03
FF
FE
01
04
FE
FF
04
FB
FF
FA
00
00
FF
01
FC
FE
FE
FE
00
FC
01
00
FC
FD
02
00
01
FB
FE
04
FB
00
06
05
00
FC
FE
11
0D
00
03
01
FB
FE
FD
FA
00
03
FF
08
FF
FD
F7
00
00
02
00
F8
FF
FC
FF
FE
00
02
00
03
FF
FD
FD
00
FA
FD
01
01
00
F4
FA
FF
00
FB
FC
FC
FB
F8
00
04
02
FA
FE
0A
07
09
FE
FF
F8
F5
FC
01
06
FF
F8
05
02
02
00
FF
0B
02
00
00
FB
07
01
FE
FC
FC
02
F6
F9
00
01
FF
FF
FE
03
03
04
12
03
04
03
05
0C
03
03
FE
01
06
00
FD
03
FD
FD
FD
F9
FB
00
FF
FB
03
FD
F9
FC
FA
05
FF
F9
F9
F7
FD
01
FC
FA
FB
FF
03
00
FC
02
FA
F3
00
07
0B
00
FE
FE
05
01
00
00
02
F6
F9
FE
02
07
03
07
09
06
03
08
01
FF
00
01
F9
02
02
03
FF
FF
02
00
FF
01
09
05
FE
02
03
03
00
FF
03
06
01
02
FF
FE
FD
FF
02
FD
01
03
FD
FE
FF
05
04
FC
FF
02
07
07
06
00
FF
08
0E
FC
00
02
00
03
02
FC
03
05
04
00
FF
00
05
FB
01
01
04
FD
FF
02
03
FD
01
00
01
02
FF
FF
FE
FE
04
FE
FF
02
FF
FE
02
07
FC
FE
FE
06
03
04
FD
02
02
FF
FD
09
04
02
05
01
01
00
01
06
02
00
00
00
01
FE
06
FF
03
01
05
FF
02
FE
FF
01
FE
02
FF
03
00
02
02
00
04
00
FC
FC
01
03
FD
04
03
03
FA
00
02
FE
FF
FB
FA
FE
00
02
00
02
01
FC
00
FE
02
F6
01
00
00
00
FD
FF
FE
FC
03
FA
FE
05
00
07
FF
03
FD
FD
01
FA
07
07
FA
FE
01
05
04
03
01
07
06
01
FD
02
00
04
FD
04
FF
FC
01
01
FD
03
00
02
FF
03
03
06
01
04
02
FD
06
05
00
03
00
02
06
FC
FF
FF
03
FE
FE
FB
FD
02
FB
FF
01
03
00
07
04
03
FF
F8
01
00
03
03
F6
FF
03
01
04
05
FC
FC
FF
FA
02
FF
02
00
07
FC
FD
01
FE
00
05
02
FB
02
02
FF
00
FD
FD
06
05
06
01
FB
00
04
FE
01
00
F9
02
00
02
06
03
04
FE
01
04
06
FF
FD
F9
FD
00
FF
FB
FB
F9
FB
02
FF
FF
FD
08
01
05
FE
FC
04
07
03
FF
FE
07
01
05
FD
FC
04
F9
F8
FD
04
02
FA
FC
00
07
05
FB
FC
05
02
FE
FC
FC
FF
03
00
01
02
FC
02
04
06
02
FB
FB
FE
05
F9
00
01
FE
01
FF
03
04
01
01
01
00
FE
F9
00
01
FF
FE
FA
04
08
03
F7
F6
01
01
F8
F8
FB
FC
F8
F6
FF
01
05
02
F9
04
06
FE
FA
F8
FB
FE
FE
02
03
FF
F5
F8
FA
FC
05
FB
FC
02
03
00
07
FB
03
FF
FF
FF
01
04
FF
02
03
06
FF
00
F6
EF
01
FD
FC
03
02
03
05
02
01
05
01
FC
FD
01
01
FB
FD
F8
00
FF
FD
03
FE
02
07
00
01
02
02
FE
00
FF
00
01
00
03
00
01
00
01
02
01
06
00
04
FE
00
02
07
02
03
05
02
FE
FB
02
FE
01
05
05
02
02
02
FF
FE
04
05
FF
02
02
FA
FE
FE
FC
FA
00
FF
FB
FF
FD
00
00
FE
04
06
FC
FF
04
03
FB
01
03
00
FF
03
FE
FA
FE
01
06
03
06
06
01
FB
02
FF
FC
02
FC
FF
02
02
00
03
02
01
04
FD
05
FD
FF
FE
FD
00
FD
FF
02
03
01
FD
FD
FE
FD
02
FE
FE
00
FD
02
02
FD
03
01
00
02
FD
FD
01
FD
FF
FE
FF
00
00
02
01
FD
01
03
FE
FE
00
FF
00
FD
00
FE
01
FE
03
FF
FD
FF
FF
FF
01
01
00
02
00
02
FD
FF
FF
FE
01
00
FD
FE
00
FE
01
FD
FE
00
01
FF
02
02
01
02
00
00
FD
FD
01
02
FF
00
FE
02
01
FC
FF
03
00
FF
FD
FF
01
02
FD
FF
00
FD
02
00
00
FF
FF
FD
00
FE
02
00
FF
02
02
01
00
01
FE
FE
FF
FD
FF
02
00
FF
02
01
FD
FF
02
00
00
00
00
01
02
FF
FD
FD
00
01
FF
FE
01
02
FD
FF
02
02
01
FD
FF
FF
FD
02
FF
02
FD
01
FF
01
FF
01
FE
FE
02
FF
FD
03
FF
FE
FF
FE
FE
03
01
00
00
02
01
02
FD
FF
FD
FF
02
FE
00
FD
00
02
03
03
01
02
FF
FF
FE
FE
FD
FF
FE
01
FE
FF
00
FE
FF
FD
FF
FC
00
00
FF
02
FE
03
FF
00
FD
02
03
FE
02
02
FD
00
FF
FE
02
00
03
FE
FF
02
01
01
03
FD
FE
FC
FE
FE
00
FD
FD
FD
02
FE
00
00
00
00
02
FD
00
00
FD
00
FD
01
FF
02
02
FF
00
FE
FE
FF
FD
02
00
FE
FD
FD
FE
03
02
FD
00
01
FE
01
FF
02
FF
FE
FD
00
00
00
02
FF
00
FD
FE
FE
01
01
01
01
01
03
01
01
FE
FE
01
00
00
FE
FF
01
FF
FD
00
00
FF
03
FF
02
00
FD
00
FE
00
02
FE
02
02
FF
03
FE
01
01
01
00
00
FE
FD
00
00
01
00
02
03
00
03
FF
01
01
FF
FD
FE
02
FE
01
02
01
FD
00
FF
03
FD
FD
FF
FF
FD
00
FD
FD
FD
01
00
00
FE
FF
FD
FF
FF
01
FF
01
FF
00
FF
00
00
FE
02
00
00
FF
FE
00
01
01
03
FE
01
FB
00
FF
02
FF
FD
FE
FE
FD
FF
00
00
04
FC
01
FB
FB
03
01
05
FF
FC
01
00
03
03
09
03
02
00
05
05
05
00
FF
04
FE
02
01
01
01
00
02
03
00
00
04
00
FF
01
0A
01
FE
00
01
06
04
FE
00
03
04
03
02
05
FF
00
01
04
02
FE
02
04
02
FE
00
FC
03
FF
00
00
FF
01
03
04
FF
FB
02
03
00
01
F7
F8
07
04
04
0B
00
FC
FA
FD
00
01
FD
02
03
01
01
00
03
00
08
01
02
FF
FD
04
FE
00
FD
00
05
03
FF
01
03
06
02
FD
01
00
01
FA
03
09
01
01
02
05
FD
03
04
FF
F7
F4
00
05
03
02
FE
F9
05
07
03
0A
09
01
FF
05
03
0B
05
02
04
01
03
01
07
06
04
FF
05
00
00
FE
00
F6
0A
02
FE
00
F6
01
04
FF
FA
F8
FE
FE
FE
FF
FE
04
FC
FB
05
05
04
FD
00
FD
07
05
03
01
02
04
02
02
04
04
0B
03
04
05
FE
08
05
03
FC
FE
03
05
06
F6
F7
FE
FA
FB
F9
FA
FA
F0
F9
02
05
09
02
FE
06
02
01
F9
F7
FE
FB
FA
FC
00
00
04
FA
00
FC
FE
00
05
FD
FB
04
01
FB
00
FF
01
FC
00
04
FE
03
03
06
01
FC
FF
FF
01
01
FB
FF
FE
02
FF
03
02
FF
06
03
00
FF
FB
FE
FF
FD
FA
FE
FF
FB
01
04
0C
FD
05
01
FC
05
06
05
00
FE
FE
03
01
02
FA
00
05
02
04
00
02
FF
FF
03
04
05
01
02
02
00
FD
03
05
01
FD
FF
02
04
01
FD
FE
05
FF
FF
FF
01
F1
FB
00
FD
FC
FC
FF
FC
FE
FA
02
03
01
02
03
02
03
04
00
FF
05
05
00
FE
01
04
FE
FA
00
0A
02
04
07
FF
06
04
01
FE
FA
FF
01
FF
FE
00
00
01
03
06
00
05
01
FF
FE
FF
FF
FC
01
03
FC
FE
FF
01
02
02
02
04
04
03
00
FF
06
02
FF
02
FC
01
FD
FE
01
00
06
00
04
04
06
06
03
04
02
FC
FF
FC
FF
04
FF
FF
FC
01
FC
FD
00
04
05
01
FF
05
03
02
04
02
FC
FC
02
05
04
FA
FA
01
00
01
F9
FB
01
02
00
FE
FD
05
03
03
FB
03
02
FF
FF
FB
F9
FC
01
04
07
01
02
04
00
10
FB
00
FC
00
02
02
03
06
05
01
00
02
00
FB
00
00
FD
03
FF
FD
FE
00
00
03
FD
03
07
05
02
FF
FF
04
07
05
FD
00
01
07
04
01
03
FD
FD
02
FF
02
03
01
FB
01
04
07
01
00
02
08
06
04
08
03
FF
01
00
F8
04
FF
07
07
02
FB
FF
07
07
02
FE
02
06
07
03
04
05
04
FE
FD
07
07
F8
FC
FB
00
02
FE
FB
FF
05
09
F9
FB
00
FF
FE
04
00
03
03
FE
03
06
07
00
00
03
02
02
04
03
01
FD
FF
00
FE
01
FD
05
FC
05
03
04
0B
00
FB
01
0B
08
FF
00
06
01
03
01
FF
06
00
02
FD
F8
03
04
FD
07
03
0A
03
FF
04
00
01
05
09
03
00
05
FD
07
04
01
FF
05
FA
06
FF
03
04
FA
FC
FA
FF
07
FC
FF
02
00
03
08
04
02
03
FC
F8
FC
FA
04
FC
FD
FD
01
04
02
00
02
01
0B
04
FC
04
00
FD
FF
F9
01
01
FE
00
03
FF
00
FF
01
02
02
04
FD
02
FF
FE
00
FF
FE
FE
00
FF
FB
FB
02
03
FD
02
FD
03
FD
04
04
FA
FC
03
03
FB
FB
FC
02
FF
00
FB
01
FC
FC
01
05
0C
FC
00
FF
01
09
07
07
06
FF
00
03
03
FD
00
FB
FD
FF
FD
FF
FE
03
04
00
F9
FA
FF
FE
FD
FD
02
FD
04
04
FF
FE
01
03
FF
02
00
FE
01
FC
03
00
00
FF
00
02
01
01
FE
FC
F9
FF
FD
FC
FE
04
FE
FA
01
00
FE
FF
0C
06
00
FC
00
01
FE
FB
01
03
02
04
07
03
02
01
08
03
FB
00
01
07
FC
00
02
FF
02
FB
FF
01
02
03
01
05
02
02
01
FE
01
04
00
05
FF
03
04
FE
01
F7
00
07
F9
FA
FD
03
01
01
03
01
01
FE
F9
FD
04
02
05
F7
FC
05
FE
03
01
08
01
FA
02
17
02
FB
01
00
FE
00
01
01
05
00
04
00
00
03
FF
02
FE
05
07
FC
03
00
03
01
00
05
01
01
01
02
FF
03
00
00
03
02
00
FD
04
06
FE
FF
FB
FE
00
FA
00
08
FC
00
00
06
07
05
FD
00
01
01
04
01
03
FE
FE
03
FC
01
FA
06
02
FD
FC
03
03
06
FD
FE
04
02
04
F9
FC
FF
01
FF
01
FA
FD
01
01
05
04
F9
01
01
0A
05
FB
F8
FD
07
FE
FA
FC
FD
03
01
00
03
03
FE
FB
02
FF
FE
FF
FC
FE
FD
02
FB
FD
FE
01
01
FB
00
06
08
FF
FE
FD
FE
FB
04
05
09
FF
00
03
04
FC
02
FD
01
F8
F7
FC
03
02
0A
08
06
05
02
02
00
FF
FF
02
FE
01
FC
FF
00
FE
02
FB
03
FC
07
04
FD
04
FC
04
FB
FD
06
01
FD
02
FD
FE
FF
02
FE
01
FF
FB
FE
FD
FD
01
FE
FC
FB
01
09
FF
04
FF
02
0B
0C
00
FD
FD
00
FE
01
01
FD
01
FE
04
04
02
01
FF
01
05
FF
FF
00
FE
03
FD
FF
02
FE
01
FF
FE
FF
01
FE
FF
FF
FC
02
FD
05
04
FC
03
02
04
03
00
FE
03
02
02
00
07
04
01
02
01
FF
00
FD
FD
02
03
03
03
FF
00
03
00
00
05
01
FE
00
02
00
FC
FE
FE
FD
02
FE
02
01
FF
02
FC
02
FF
05
04
FB
04
03
02
FF
04
00
FF
FB
FC
FF
FF
06
02
05
01
FF
01
FF
00
03
02
FE
01
FE
FD
13
04
01
04
06
0A
03
FF
03
FF
00
07
07
FF
01
05
00
01
02
05
03
00
00
FE
FD
02
FB
03
FD
00
03
03
01
FD
02
00
00
07
02
03
F9
FF
05
00
FB
FA
FF
04
FE
FE
FC
FB
03
02
FD
03
01
00
03
04
04
01
01
05
FD
FB
FE
02
03
FB
09
03
00
00
01
0A
FE
FC
FF
02
07
08
FE
03
FF
FB
FF
FA
F9
F6
FD
03
04
FC
FE
FA
FD
01
00
00
FE
FE
00
00
00
FE
00
00
FF
06
03
03
FD
FD
01
01
FB
F8
00
FE
FC
02
FF
FA
FD
FC
05
02
FD
05
02
01
04
03
07
02
02
00
01
FC
03
04
FC
FC
F9
FE
02
02
FD
04
FF
FF
FF
03
04
00
FE
00
02
02
FF
FC
00
F9
FD
FF
02
03
FC
FF
07
02
08
00
00
04
FD
04
02
06
F9
FD
0B
08
FD
FD
02
FD
FC
FF
F9
02
01
FE
FE
FB
FD
06
03
02
FA
04
00
00
FD
01
06
00
FB
05
02
02
01
FF
FE
01
FC
02
FB
FF
02
FD
FA
03
02
02
FB
03
FE
01
03
07
0E
FF
FF
FA
06
03
05
04
08
03
03
01
0E
07
02
FE
FC
00
04
03
03
FB
FD
04
01
03
02
03
02
FF
FD
04
06
FC
03
01
00
FE
FF
00
01
05
FD
01
FF
04
02
07
FF
FE
08
05
05
FF
FE
02
00
02
FE
01
00
05
04
01
FE
FF
00
04
FC
01
00
FF
FF
00
FD
FF
FB
FB
03
FC
00
00
05
FD
00
03
FF
01
01
00
02
FD
02
02
FF
03
FF
F9
04
00
02
00
FF
F6
FD
03
05
05
05
04
03
03
05
03
FB
00
FD
FE
01
01
01
FD
FA
04
02
00
FC
FE
03
FF
FC
03
FE
FE
05
FE
03
04
04
04
FE
00
02
FC
FD
FF
04
01
04
00
FD
FF
00
FF
01
FB
FA
FB
FF
FB
FD
FC
FF
FE
00
02
01
FD
00
FE
01
FD
FE
FC
02
01
FC
00
FC
FB
FC
01
FF
FE
FB
FC
FE
FD
01
FD
00
FF
FF
FF
FF
FB
FB
01
FE
FE
FD
01
FD
00
00
FC
FD
FF
FE
FE
FD
FD
01
02
FE
FD
00
00
02
FE
FD
FF
01
FD
02
FC
FF
01
FE
00
FC
01
02
FE
01
03
01
FD
FA
FB
FB
00
FC
FD
01
FD
FD
01
FF
01
FE
FE
FB
FD
FE
FE
FB
FD
FF
00
01
FD
FF
FD
FF
FE
00
01
02
FD
FB
FD
FD
03
01
FD
FE
FE
FC
FD
FC
FC
FD
00
FD
FC
FD
FF
00
00
FE
FA
FC
01
FB
FE
FB
FE
FB
01
01
00
FD
FE
00
FE
03
FD
FD
01
FF
01
FC
FE
00
04
FE
FC
FF
01
01
FE
FF
FC
FE
00
FD
FC
FD
01
04
FC
01
02
03
FF
00
FD
08
FE
03
04
FE
06
01
00
02
01
06
00
00
03
03
02
FD
FF
FE
00
01
01
FF
FC
01
00
00
FF
FE
FE
00
FD
FD
00
FF
00
FE
FC
00
FE
FC
FC
FB
03
FB
FE
FE
02
FF
FF
FE
FA
02
00
FE
FF
FB
FE
01
FF
FF
01
01
FC
FD
FF
FE
00
FE
FB
01
FC
FC
FF
FC
FC
FE
FC
FF
FC
00
FC
FE
FF
02
FC
FC
FF
FB
00
00
01
FA
FD
00
02
00
FE
01
02
02
00
FC
FD
FF
01
FB
FC
FE
FD
FD
FD
FF
FD
FE
FE
FD
FB
FE
FB
FC
FE
FE
FD
01
01
FB
FC
01
00
FE
00
FF
FE
FF
FD
FE
FE
FB
FB
02
FC
FD
FF
FE
00
00
FF
FC
00
00
FD
01
FD
00
00
00
FB
00
FF
FE
FF
FB
00
FB
FD
FE
FE
00
FC
FC
FF
FB
FC
01
FC
FE
FF
FE
03
FD
01
FD
FE
FD
00
FD
FF
FD
FD
FC
00
FF
FE
01
FF
FC
FD
FC
FE
00
FD
FC
FE
04
FD
FA
FD
00
04
FE
FF
FD
01
FF
FD
01
00
02
FE
01
02
03
02
FE
FF
02
FF
FE
FE
00
02
FD
FD
FE
02
FF
01
FC
00
FE
FF
FF
02
FE
FD
FF
00
FD
FD
01
00
FE
FC
FE
02
FE
FE
00
02
02
FD
FE
01
FD
FD
FC
01
FF
01
FF
FE
00
FF
FF
00
FD
FF
FE
FE
FD
FE
01
00
02
01
FD
FF
01
FD
FE
02
FF
02
00
00
03
00
03
FE
01
00
FE
FD
03
02
00
FF
03
02
FF
02
FE
FE
02
02
02
02
02
03
01
FF
FD
FE
FE
FF
FD
01
FF
FE
03
00
01
01
FD
FF
01
01
02
00
02
FE
FF
03
FE
FD
00
FE
FD
00
02
FF
01
03
00
FD
FE
02
FE
03
FD
00
FD
FD
00
02
01
FE
00
00
FF
00
FF
FD
FE
02
FF
03
FF
FE
01
FF
FD
01
00
02
FD
FF
FE
FE
FD
FE
FE
01
03
00
FE
FD
01
01
03
FE
FF
FD
FE
00
01
01
FF
01
03
03
01
FE
00
FD
00
FF
00
00
FD
FE
01
FE
FE
FD
FF
FE
FD
FE
02
02
02
00
03
FE
FF
00
01
00
03
FD
00
01
03
00
00
01
FD
02
01
FE
FD
02
01
00
01
00
00
FF
FD
FC
FD
FC
FE
FF
FE
03
02
FF
FF
FF
03
01
FD
FE
FE
02
01
02
01
FE
00
01
02
00
FF
01
02
00
02
FE
FF
FF
FF
03
FE
02
FD
00
FD
FC
FF
01
00
02
01
00
01
00
FD
FE
02
02
00
FE
00
02
00
02
02
02
01
00
FF
FD
00
FD
01
FE
01
FE
FD
00
FF
02
FE
01
FD
00
01
FD
FE
FF
FE
FF
00
FE
FF
FF
FF
00
FE
02
02
FD
00
02
03
00
FE
FD
FD
FF
03
02
00
00
FD
00
01
FD
FD
FE
FD
FD
FE
FC
FF
00
01
FD
00
00
FD
00
FE
FD
FE
01
FE
FC
FF
FF
FD
03
FE
FF
02
02
01
01
01
00
FF
FE
FD
00
FD
02
01
FD
03
00
01
00
04
03
01
00
FE
01
FF
FD
FD
F9
FA
00
04
FE
FB
F5
F8
FC
FF
F6
F4
FF
06
04
FE
04
FE
FE
FF
01
05
02
01
FF
00
FD
FD
FE
00
FB
FE
04
01
01
FA
FD
02
03
00
03
FF
00
04
FB
00
03
01
03
FB
FB
00
05
07
01
FA
00
06
FF
03
FB
03
03
FF
FF
04
05
00
04
FF
F7
FD
FE
03
FC
FB
FA
FE
04
01
FB
F5
FC
01
02
F6
F4
01
03
01
FE
FD
05
FD
F9
FA
FC
09
FF
FB
FE
03
02
05
F9
FC
03
01
02
01
05
01
01
FD
06
03
04
FF
FF
FC
FF
05
FE
FC
FE
01
FE
FD
FB
00
06
02
F9
FB
05
03
01
FA
F8
00
FF
FA
F5
F8
FD
FB
FC
FD
00
FE
00
01
01
01
06
04
04
08
FF
01
00
06
08
FF
02
FC
F9
03
04
01
FF
F6
07
04
03
F8
F8
01
05
FF
FC
01
FC
F9
FD
00
05
FF
01
FF
FC
FB
05
01
01
01
FE
FD
01
FE
FE
02
FF
03
FE
FC
07
03
FF
FE
04
04
03
F9
FF
FF
05
06
F7
FD
05
02
04
FE
05
02
F7
FE
FF
06
00
F9
FE
04
06
FF
FA
FB
FB
FD
FC
01
01
05
00
F9
FF
00
FF
FB
FF
FA
04
01
02
FD
FE
FE
FA
FC
FA
01
04
FE
06
03
05
02
00
F6
FC
02
FF
FD
F9
04
03
00
FF
F3
02
03
FF
FA
FE
FD
FF
00
FD
FC
FE
FE
00
00
02
01
04
02
00
FE
01
00
FE
FC
01
FF
02
FD
FE
FD
FA
00
02
01
03
01
00
01
01
FF
FF
01
05
01
FB
01
FD
03
FD
FA
FB
01
00
FD
FF
FB
FD
03
FB
FD
F6
FB
FD
06
FF
FE
01
FE
02
FE
FF
FF
FE
02
00
FB
FC
FF
FD
FA
FF
01
FE
FD
FD
00
00
05
02
FF
FF
05
05
02
F8
04
02
FB
FE
F9
00
00
02
02
02
02
03
03
01
04
01
04
00
03
FE
01
05
FF
FE
FD
FE
04
01
01
04
FF
01
03
FF
FF
08
05
03
00
02
FF
03
01
03
02
02
01
FC
00
00
FE
02
01
00
00
02
03
FE
FF
05
02
03
FB
FE
01
FF
FE
01
03
05
FA
01
FC
FF
FF
FF
01
FC
FF
05
01
04
FD
FE
01
FD
FE
FD
03
01
04
FC
FA
FD
01
06
FB
FD
FC
03
FF
01
01
FA
03
05
03
04
FD
06
0B
0E
FD
04
04
FB
01
04
06
06
00
02
04
01
05
FB
FD
00
03
02
FE
FD
FD
03
02
FD
02
00
FF
08
FE
FF
01
FB
FC
FF
FE
02
FD
F9
FD
01
04
04
04
FE
F9
03
09
04
FF
FD
08
09
01
FC
FE
FE
03
06
FF
04
FF
04
06
02
FD
FE
02
00
04
FF
FA
FD
03
FF
FB
FF
00
07
F4
00
05
08
FF
01
F8
02
02
FF
0B
06
FD
FC
01
08
04
08
01
02
05
FC
00
04
05
04
01
FC
FD
01
FD
FA
FF
FE
00
FA
F9
02
01
02
F6
FA
FE
05
03
F8
FA
FE
03
02
02
FE
F6
F8
FE
09
06
01
05
00
02
07
FC
07
01
02
FF
00
01
00
02
0C
FE
02
01
05
02
FE
FC
F8
03
01
FE
FF
FA
FB
02
00
02
FE
08
04
FC
02
00
04
03
FE
00
0B
00
FE
FD
FC
F5
FF
00
FB
05
FD
FC
FE
FE
03
01
FE
FC
FD
05
0B
06
00
FF
06
08
FE
00
03
FF
FC
FE
02
FF
00
02
01
01
01
03
FF
02
03
00
01
FF
01
02
FD
02
03
00
04
00
00
FE
00
05
FD
FF
F9
FE
FE
05
08
FC
FE
FF
01
03
01
FF
02
01
04
00
0E
09
FF
02
FA
08
08
05
FF
02
FF
00
02
FF
FC
04
01
01
02
00
05
FE
00
04
04
FE
FE
03
01
00
FF
FC
FF
FE
FB
02
FD
FF
03
FC
FF
01
03
FF
07
FF
FD
FB
02
06
01
FD
FF
01
04
04
02
00
FE
00
09
00
F8
FD
FE
FC
01
04
02
01
FB
01
02
03
04
04
01
FD
02
FE
FF
F8
FB
FE
00
FD
FA
FE
FF
02
FF
01
02
03
05
00
FE
FD
02
01
FD
FA
FA
02
02
02
FC
FA
02
04
00
FF
FC
FD
02
04
03
04
FC
FB
06
03
03
FD
FB
FE
03
FC
03
01
09
01
FB
00
02
05
FD
02
01
02
03
FC
03
00
FE
F8
FA
FE
03
01
F9
F7
FC
01
07
01
02
01
00
0A
FF
FF
01
04
02
FF
FF
FF
F9
FA
04
04
FC
FE
F8
FC
FC
FF
FD
FC
FA
02
00
F9
FC
00
00
08
04
09
07
FF
03
07
01
03
01
FA
FA
F7
FD
FA
FE
FE
FD
FE
F7
08
07
0D
FD
FE
02
04
05
03
04
02
FA
FA
03
FF
02
FD
FF
01
00
03
07
03
FF
F7
01
01
05
FA
FE
FB
FE
FC
FD
01
02
FC
FD
05
01
00
FB
FF
FD
01
FA
FA
03
00
04
01
FF
03
FE
FE
FF
06
05
FF
FD
04
03
03
01
FE
FE
00
F9
FD
FE
02
F7
FC
02
05
00
03
FF
09
06
04
07
03
04
06
00
03
FF
FF
FF
FC
FC
FF
06
04
FF
FE
F7
06
02
01
FD
FD
FA
F8
FD
05
03
FD
04
02
00
04
01
01
FF
00
FF
FD
02
03
03
01
FF
FF
02
00
FF
05
00
FE
00
0B
04
04
FA
FA
FF
04
FF
F5
F0
FB
01
04
01
03
00
FF
00
00
FC
00
00
FF
00
FE
02
01
FF
00
FE
03
FF
01
04
02
01
00
04
04
01
FB
FE
00
03
04
FC
01
FC
02
FE
01
FE
FE
00
04
03
01
00
01
04
04
0C
0A
03
FC
F2
05
03
02
FC
FE
FB
FF
FD
FF
02
00
00
02
05
03
03
02
02
00
FE
FD
00
05
02
05
FA
FD
01
03
01
FF
FD
FA
FD
02
03
FC
FE
FF
02
FF
03
00
FE
03
02
04
05
05
01
FE
FE
04
02
01
FE
F9
FC
02
FB
03
FE
FC
FC
FC
05
02
FD
01
FE
05
04
01
03
FF
03
01
FD
FF
FF
FE
02
00
01
00
FB
FC
FF
FE
00
FF
FC
00
00
FF
02
FC
04
01
02
FD
FE
05
FF
FC
FE
FC
01
03
FD
FC
FA
04
04
FF
00
FD
02
03
02
02
04
04
03
00
FC
01
02
01
FA
01
FC
F9
01
FD
07
FC
F9
02
02
08
00
FB
02
04
FC
FE
01
FD
F8
03
FE
0A
05
FE
FE
FF
02
00
02
FA
FB
FE
01
03
FD
FF
04
06
00
00
00
FE
02
05
02
01
FE
FF
01
FF
03
01
F8
FB
FC
01
03
02
01
01
08
05
05
05
FC
FF
FC
01
F9
FD
04
05
00
FE
06
08
06
02
05
FE
04
05
04
03
01
03
03
01
00
FE
FF
FF
FD
00
03
FC
05
FF
03
06
FF
03
00
FC
06
03
FC
FE
FD
FC
04
07
03
FC
FF
FE
01
00
FD
00
FE
02
00
FF
FE
03
09
01
00
FC
FE
00
03
06
FB
04
00
00
05
02
03
02
FA
FD
00
FF
05
F9
04
FF
04
04
01
06
FE
FC
07
02
03
02
07
09
02
02
FF
01
07
00
04
FE
00
03
00
04
01
FF
02
FE
FF
04
FF
01
00
03
FC
FB
FF
FF
FD
FC
03
FF
05
02
00
02
05
05
03
FE
00
01
FC
FF
FA
00
01
FE
FC
02
07
0B
02
FB
01
02
07
04
00
FE
02
FD
05
FE
00
FC
FC
FE
FF
FF
FF
FC
FC
F9
FE
FB
FD
FD
FA
05
02
FF
FF
04
00
04
04
FE
02
FD
FC
FF
00
02
FF
FD
03
FD
FE
FD
01
02
FF
FC
FB
FC
FF
05
02
03
01
01
FF
02
FC
01
00
04
02
02
00
00
FE
FA
FE
FD
02
FD
F9
FE
04
00
00
FD
00
02
FF
02
02
02
04
FD
01
00
FE
05
FD
03
FB
02
03
01
00
F8
02
00
03
05
06
FE
FC
FC
FB
FC
07
FD
F8
FC
00
01
FD
FA
00
03
01
FE
04
04
FD
08
05
FF
00
FF
05
F7
F7
03
F9
FD
FB
FE
02
04
FE
FA
03
FF
00
FF
FF
02
01
03
01
FF
03
03
01
FE
FC
02
08
03
F8
FF
01
03
FE
02
FE
09
00
00
07
06
02
01
00
03
FD
FE
05
FE
FD
FD
F7
FE
00
0D
FF
FC
03
00
FF
FB
FF
02
FF
F7
FD
04
01
FF
F7
FB
04
06
07
FF
FF
04
03
02
02
03
05
FF
F8
04
03
04
FF
FF
FF
FD
FF
FE
02
00
00
01
FF
FB
FA
03
06
07
03
03
03
05
05
03
02
03
FF
01
FD
02
01
FE
FD
FA
FB
F9
01
08
08
02
FD
05
0B
01
00
FE
05
FB
FA
03
05
05
FF
FF
02
01
00
01
FF
01
00
02
02
01
F0
FD
02
FB
01
F1
F8
02
FE
FA
FD
FC
FD
00
06
02
08
01
FC
FF
F9
00
03
06
03
FC
FF
00
04
04
FE
06
FD
06
03
05
06
FA
FF
05
06
FE
FA
FE
08
03
03
FF
02
FE
01
FD
FB
01
05
07
04
04
04
06
08
01
00
FD
FE
FB
F9
FB
FD
FD
04
06
FF
FF
00
04
FF
04
FD
01
FD
FB
03
02
FE
F8
FB
00
FB
FD
FF
05
01
FF
FF
FF
FF
07
04
F9
00
04
08
02
05
04
08
FD
FC
01
01
04
FB
FE
FB
02
01
02
F9
F6
08
08
07
01
FF
02
01
02
FE
03
FE
FE
01
00
03
FB
FA
FB
02
FD
06
FE
FF
00
FD
06
00
07
FF
FC
00
01
05
01
00
FE
FF
FE
FA
06
01
FE
01
03
FD
01
01
FC
FC
FE
09
02
00
FC
FD
03
05
FD
00
02
FE
FD
FE
03
02
FB
02
FD
01
FC
01
00
00
02
01
05
04
08
05
FF
01
03
02
03
FC
FD
01
FE
FF
02
00
FF
FF
01
FE
06
FF
00
01
02
FB
FE
FF
01
02
00
FE
FD
01
01
FF
FA
00
03
FF
FD
FB
FD
02
FD
00
FF
FE
05
05
FC
FD
FB
FD
02
00
08
08
02
FF
05
02
03
FE
01
FF
FE
02
05
FA
00
FE
03
01
01
01
02
04
FF
01
FF
03
00
05
FD
00
02
01
04
03
FD
01
01
01
FF
FE
FE
00
02
FF
01
03
02
04
FF
00
02
FE
04
01
F9
F6
FA
05
FF
03
FB
FB
01
03
02
F8
08
03
FF
FC
04
01
F9
FF
FA
02
03
02
F9
FE
00
02
03
FC
00
00
06
01
F4
00
01
FF
00
F9
03
04
01
02
02
03
04
FC
00
FD
02
FF
FC
FB
FB
FE
04
FB
F9
04
00
04
04
FE
03
FF
06
FF
00
FB
01
03
FE
02
FC
02
FF
05
06
08
00
FF
06
00
02
00
04
05
03
FE
FF
02
04
FE
FE
01
FE
FF
02
FB
FA
FD
00
FC
FC
04
09
FA
FB
FC
FC
10
08
07
04
FE
FE
01
01
01
FB
01
FE
FF
06
01
07
05
01
02
03
04
05
FE
FB
03
09
07
FE
00
FE
05
06
05
FF
02
01
01
07
01
03
F7
01
03
02
00
F6
FE
05
01
02
04
06
04
03
F9
F8
FE
04
0A
F9
01
FC
01
03
02
02
00
05
06
04
FC
02
01
FB
FF
FE
05
04
FE
FD
01
00
03
04
00
05
04
02
FB
FF
F9
FF
FE
F4
02
FF
02
02
01
04
FF
05
02
FB
00
FA
FA
FC
04
FC
FE
02
00
05
05
04
05
FE
01
01
03
03
FD
FE
FF
01
FC
FF
00
03
FF
FB
FD
04
FD
FD
FD
FE
07
00
FE
FF
FC
01
04
03
04
FE
00
03
FD
FE
FD
FD
F4
F4
FD
00
07
F6
F9
00
05
06
01
05
04
02
03
02
05
FF
FD
FF
02
00
01
FA
FF
02
00
01
FF
04
FD
02
03
FB
05
01
01
01
FC
FA
03
FF
00
03
FD
06
04
02
04
00
00
FE
FF
02
02
FF
FF
02
03
00
F8
FF
FC
FF
03
FC
FE
00
FD
FC
FE
FD
FC
01
F7
FF
FF
FF
00
00
FE
FD
04
00
02
FC
01
FC
FF
FD
03
03
00
00
FE
02
06
01
03
FE
01
FF
01
01
01
FD
04
06
02
01
02
01
05
FC
01
FD
00
02
FF
07
F9
00
03
03
02
00
FF
04
FF
01
00
00
07
00
FD
FC
01
00
FC
00
03
04
01
FB
FD
09
08
02
FF
00
FF
00
05
06
06
04
00
04
FB
FC
06
01
FF
FC
06
F9
01
FF
05
06
FC
FF
00
FF
FC
01
FC
FE
04
02
FE
01
01
03
08
02
01
FC
FD
FA
FF
FE
03
02
FD
FF
01
06
0F
08
FE
FD
04
FE
05
02
03
01
F8
F4
FF
05
02
FE
FE
FF
FD
F9
03
06
02
FE
F9
F8
FA
FB
FC
FB
F8
FD
0B
FC
01
FC
FD
0E
01
FE
0B
09
05
02
03
02
FF
02
02
03
F5
F6
FF
FD
00
04
00
FE
00
03
06
02
05
04
03
FC
F8
FB
FD
F9
02
FE
F9
F8
FE
04
05
FD
FE
01
04
07
06
06
05
02
FD
FF
0A
07
F7
FB
FA
03
08
00
06
FF
FE
00
08
0F
02
FD
01
05
06
00
FB
01
FE
03
FB
02
FF
F6
F7
01
01
00
FD
05
FF
01
FF
05
04
FF
FD
03
07
0A
04
08
FE
FC
0A
FC
00
FE
FF
00
FC
02
02
07
03
FD
06
FF
07
11
FF
FF
FC
00
FF
FF
01
03
05
01
FE
FF
01
05
FF
00
FF
FF
03
FE
FE
03
04
02
FC
FC
01
FB
FE
04
FC
FF
FC
04
09
FE
01
02
06
FD
FF
01
00
FF
03
FE
FE
FD
05
01
03
00
01
0B
0A
FF
F9
03
03
07
01
01
00
FE
FD
FC
FA
01
02
06
00
02
02
04
03
00
00
00
FC
00
01
01
F9
FC
01
04
FE
02
09
04
07
04
03
FC
F5
05
FF
FF
FA
F7
FA
FE
01
FF
FF
FF
FB
02
F9
FF
03
07
03
00
FE
06
04
07
FC
02
00
0A
07
FE
04
F5
FF
FD
FF
03
FF
09
FF
FC
01
06
04
05
05
00
01
02
FF
01
02
04
00
FE
01
01
00
03
02
02
03
03
03
00
FE
03
FF
02
F9
FC
01
04
00
FB
00
00
03
FF
FA
04
04
FC
01
03
00
03
01
01
FE
F9
03
01
02
03
FD
03
01
00
FE
FC
03
02
04
FE
01
01
06
05
00
02
FC
02
01
FC
FE
01
FB
01
00
00
03
04
02
01
01
03
08
01
00
FF
0C
05
02
06
FE
00
06
05
FF
03
FE
00
F7
FE
06
04
FE
FB
02
02
00
00
FB
FB
FB
FC
03
06
07
FF
FF
03
04
FB
06
FB
FE
01
FD
FF
01
FD
FD
02
FF
06
01
01
06
05
0B
FE
FE
FA
FD
00
FD
00
FC
01
FC
FF
01
04
FA
01
FC
04
05
06
FF
FD
FE
F8
06
02
01
FE
05
03
FF
FE
00
05
FE
FA
FB
FC
01
00
FD
04
FD
03
04
FB
04
03
05
01
00
03
08
06
FD
02
07
02
F7
00
FB
FF
F3
F3
02
00
01
F9
FC
FA
00
06
00
FF
FA
FF
F4
FF
05
06
04
FB
03
01
01
FF
06
0A
FE
03
FB
01
03
FA
01
FB
03
FF
FC
04
06
03
03
FE
FD
00
01
FA
F9
FE
F1
00
FA
02
00
F7
02
FF
02
02
03
FF
FF
00
FC
05
FD
F8
FA
FF
04
01
01
00
02
FD
02
03
07
01
00
07
05
01
01
FD
02
01
02
00
03
00
FC
FD
03
01
FF
FD
FE
01
FF
08
05
01
FE
01
03
07
02
02
FA
07
02
FF
FD
FF
FE
01
FD
03
04
F9
01
02
FB
02
04
06
05
02
FF
0A
03
02
FE
FD
01
04
00
FE
02
FF
FA
FC
01
00
05
00
01
03
FE
03
05
00
FC
FF
FE
FD
00
01
04
FF
FC
FD
04
09
04
02
03
02
02
02
04
02
02
FE
FE
00
FF
00
02
F3
FF
FF
FE
FF
F4
FC
01
FD
FE
00
FD
00
03
FE
FD
FF
FF
FF
00
FF
03
00
02
06
FF
01
04
FF
04
01
01
00
00
FE
00
FF
FB
02
00
02
02
01
04
01
04
05
FF
03
02
07
03
02
03
FE
06
01
01
05
FE
05
01
FC
01
FE
00
03
03
04
01
FE
02
04
FE
FD
F4
00
00
FD
FD
F7
00
03
06
04
FC
F9
FF
FE
04
FF
02
03
05
05
01
00
00
01
05
03
04
02
05
00
FE
00
FF
FC
FE
FE
00
FC
FE
FD
01
01
07
01
FC
03
02
03
0B
FE
02
01
00
05
01
04
00
FA
FE
00
FE
F7
FA
FB
FD
05
FE
01
00
08
04
01
F9
FD
04
05
05
FE
FF
02
04
05
01
FE
FE
FA
F9
02
08
03
FB
F8
03
04
08
F8
FB
02
01
FE
FD
FA
00
00
FD
04
07
FD
FC
FF
FE
FD
FB
F9
02
07
FF
FF
01
02
07
06
FE
00
02
05
02
03
04
02
01
01
FB
00
FE
01
FE
FB
F3
FB
03
01
F5
FB
02
01
FE
02
01
00
00
02
FC
05
03
FD
FB
F4
FE
05
06
01
FE
F9
F6
FE
00
FB
03
FC
FB
FD
05
05
0C
FD
01
FD
03
04
FE
FE
FD
FB
00
03
FC
FE
FD
F8
03
01
02
04
0B
05
00
FE
04
08
00
FD
F8
01
FD
FF
05
00
FB
FA
01
06
00
04
FD
FF
FF
FF
02
FE
FE
02
00
06
01
01
00
02
03
05
04
02
03
03
01
04
07
04
02
FB
03
03
01
01
FE
FE
03
01
03
0A
04
FF
03
02
07
FE
03
FF
FD
FC
0B
05
FC
F9
F4
02
02
FC
02
FC
FC
03
FE
03
09
FF
03
05
09
06
02
FC
FC
FE
01
FF
FD
02
06
07
FE
FF
05
00
FD
06
FD
00
04
FE
FF
01
07
01
FF
FF
00
03
FC
FB
02
00
04
02
04
01
00
FE
FC
FF
08
03
F9
F8
FF
0A
06
FF
00
00
06
05
07
FF
FE
FE
04
04
01
02
00
FA
F6
00
03
FE
F8
FB
F8
FF
FD
FF
FD
FE
FE
00
03
01
02
00
FF
01
02
FF
04
F9
00
02
00
01
FE
FE
01
FE
00
FD
FF
00
FE
FC
FF
03
FF
02
FF
FA
FE
03
00
FF
04
FD
F8
F8
01
0B
04
FF
FA
FD
08
FE
02
FF
02
01
02
00
01
FE
FC
FE
01
FF
FF
00
05
03
FD
FD
FB
FE
FC
FF
FD
F7
00
00
FB
FA
FF
FF
02
FE
FF
FC
FC
01
FD
FF
F9
03
02
F9
FB
00
FF
00
00
FF
FE
01
03
00
01
FF
01
04
08
FF
FC
01
0A
F9
00
FD
00
09
06
06
FF
05
01
03
03
FF
02
FF
00
06
01
FE
FE
FB
03
F7
00
FE
01
FF
FE
FE
FC
FE
FC
11
07
FF
01
FC
07
06
0F
06
00
07
00
03
08
FB
FE
FD
02
01
00
02
00
09
00
FC
FB
FE
05
02
F9
F3
FB
01
04
FE
FC
FA
00
00
02
FD
00
02
F8
02
00
07
05
FA
FD
08
0B
02
00
03
01
06
01
FD
03
03
06
02
05
01
02
07
01
03
FF
07
02
07
FE
05
02
FD
FB
FC
F5
FE
FC
FE
FD
FE
FE
07
00
04
05
FB
01
00
FF
07
00
03
01
F8
FC
FA
FF
FF
FA
03
FD
02
00
FF
09
02
01
01
FF
0A
FD
01
02
06
01
FF
FF
FD
06
05
FF
FB
FB
FC
04
FF
00
FE
FB
FD
FD
01
00
02
FF
FE
03
00
01
03
FC
FD
02
04
06
FD
FF
02
00
FF
FB
FF
F9
FE
FE
01
03
03
00
01
05
08
04
03
02
04
03
06
FA
04
01
FF
02
F9
FF
FB
FA
FB
FB
FB
01
06
02
03
FF
FC
03
00
03
FA
01
FA
FE
07
04
FB
FC
FF
FD
01
00
01
FB
F9
00
01
01
00
FC
FB
03
00
05
01
FE
01
01
00
03
FE
09
09
02
07
05
07
01
FF
05
05
01
FE
07
05
02
03
01
05
03
FF
08
FF
FA
FD
02
FF
FA
02
05
01
01
00
03
04
05
00
05
04
FE
00
01
01
01
02
03
FA
FA
FC
00
FC
F9
FD
00
FF
FC
FE
03
FE
02
FE
05
01
00
FF
FF
00
01
00
02
FC
06
FF
FC
06
03
0C
06
01
02
04
07
02
04
04
01
F4
FE
01
FF
FF
FB
FF
FB
04
02
FC
FE
01
02
FF
F8
FF
FE
FB
FB
00
FE
01
00
F9
04
FF
FA
FF
FE
01
00
00
FD
FD
FA
FF
FC
FC
FF
FE
FB
00
FE
05
FE
FE
FC
00
02
04
FE
FA
FA
FB
FD
FD
F9
01
FF
F8
F9
05
02
FD
FE
FE
FC
F8
FD
03
00
FE
FB
04
02
FE
FE
02
FF
03
FF
FD
FB
FD
01
FD
08
FC
FD
03
FB
03
03
FE
03
04
03
07
04
01
FB
FE
00
02
FC
06
FE
FA
FA
FD
FE
FD
01
01
F7
F6
FB
03
FE
FB
FC
FE
FC
FF
01
FD
FF
01
FB
05
FD
FE
FF
FE
04
FE
05
03
00
07
06
FF
09
03
06
02
02
FB
F8
FB
06
FD
FA
FC
02
06
07
00
F9
0E
03
00
FF
FE
04
02
08
FE
05
00
02
02
00
03
01
01
00
FB
00
FF
FF
00
FE
03
FF
FD
03
03
02
00
02
04
00
FC
FF
00
03
F9
FF
01
FA
F9
F9
00
02
02
04
06
04
04
05
01
02
02
FF
FE
FF
FF
06
01
FF
03
03
04
00
04
01
03
03
03
02
02
04
00
FF
03
02
00
FD
FE
FF
02
FF
03
01
FC
03
00
01
FE
01
04
02
05
09
0A
07
06
FD
07
05
05
FD
FD
04
01
FC
01
FC
FD
01
05
00
FE
00
02
02
FF
01
FE
FC
FD
03
05
FF
00
FE
FE
FC
00
FB
04
FB
FE
FD
00
FE
06
00
01
FE
FF
04
05
FB
00
01
00
04
00
00
00
FA
FD
02
05
07
05
FF
FF
04
06
FB
FE
00
FD
00
00
03
FC
FF
00
FE
00
FF
02
00
01
00
00
01
FF
FF
FF
01
05
FE
FF
06
FF
00
FA
FE
00
FC
FE
FB
FC
FE
00
01
FC
02
FF
04
03
FD
00
FB
05
05
02
03
FF
02
02
03
02
FF
FE
02
FF
FB
02
06
FF
04
00
00
03
05
05
FF
FF
FE
01
FC
FE
04
FB
F3
FE
00
00
FE
05
FD
FE
FE
F8
03
FC
03
03
01
FB
FC
02
FF
03
02
05
FE
01
05
08
02
FD
FF
FF
00
FF
FC
F7
FF
03
01
FF
08
FE
FE
04
04
00
05
00
FD
FC
FE
03
01
F5
F7
FA
FC
03
02
FB
FE
01
07
05
03
00
02
02
FF
FE
FD
02
FE
FE
02
06
FF
06
05
09
04
FB
FB
FC
01
01
FD
FD
FF
02
02
FB
00
FF
FF
FC
F8
01
02
01
FD
FA
00
04
FF
06
02
02
FD
FB
F9
FD
05
FD
FD
FB
00
FB
FE
04
03
07
03
03
04
FB
07
04
03
00
F9
FE
06
FE
EF
F9
04
FD
FF
F4
FD
06
FD
FE
05
FF
04
07
F9
04
03
09
FC
F7
00
FA
FA
00
03
00
FE
FD
FF
FD
FF
FB
FF
02
01
03
02
02
04
03
01
F8
07
02
FF
FA
FD
FF
03
FF
F6
F6
01
FD
F8
02
00
00
FD
04
06
FC
03
FD
00
F5
FD
03
FD
F8
00
FF
FF
FF
FF
05
08
00
FD
00
FC
FF
FE
00
FF
00
02
04
02
01
02
03
02
02
FD
FE
02
01
01
FF
06
FF
00
00
05
03
F9
00
00
FD
FB
02
00
02
FF
01
FF
05
FF
02
FE
FA
06
09
07
02
FB
02
01
02
FC
FC
FC
02
FA
02
04
01
03
FF
00
FE
06
04
00
F8
FF
00
F9
FD
07
08
FE
FF
01
00
FE
00
03
FF
F8
00
03
FD
02
FD
04
06
FE
FE
FD
08
04
FF
02
00
02
FF
FB
FE
04
05
FB
02
04
FD
FD
00
FD
FB
FF
03
02
FF
01
FF
00
03
01
05
FF
00
06
02
FF
FD
02
02
01
FF
FF
FE
FC
FB
01
03
FA
04
04
08
02
05
02
05
05
FD
FD
02
05
02
FA
FB
FD
FE
03
03
FB
FB
FB
06
00
03
00
00
00
FE
07
00
01
01
FF
FF
FD
FF
00
FC
00
FD
03
FC
01
02
01
00
FF
04
FF
00
04
05
FC
01
0A
04
FC
F6
F5
03
FE
FF
F8
F7
00
FD
04
FA
00
01
FF
FE
00
01
FC
FE
01
02
08
07
05
00
FE
03
FF
FC
00
FF
00
FD
02
F9
FA
FF
FC
04
00
FC
00
02
01
FF
05
0B
07
FE
05
F8
F7
07
FD
05
F2
FB
02
02
07
F7
00
00
04
FF
FF
FC
04
01
F7
F8
00
FF
00
FC
F7
FD
FE
00
FE
FD
FC
05
03
05
09
02
03
FF
00
0B
09
F8
FE
FA
F9
02
03
07
05
03
FC
03
01
00
FB
FA
03
FC
05
F9
F8
FE
02
FE
FD
FB
00
FF
FC
00
02
00
01
09
03
01
01
FB
06
FD
FC
F9
02
FD
F7
F7
FD
FE
FF
F4
FC
00
FE
02
01
04
FE
08
09
05
03
02
00
FD
00
09
04
02
FF
F5
FD
FD
F9
02
FA
02
FF
01
05
FF
03
03
FF
02
01
08
01
01
05
FD
FB
FC
05
03
FE
FA
00
07
05
05
01
FE
FC
FA
06
0B
FF
FE
03
05
00
00
03
02
02
00
04
00
01
FD
FE
00
00
03
00
FC
FF
01
02
05
02
FD
00
FE
04
09
FE
01
03
FF
04
05
01
FC
01
FE
02
FD
FD
01
FC
FD
02
FE
03
06
F4
01
0B
09
0D
FC
00
03
00
04
01
FF
FD
FC
F8
FA
FB
02
FC
FB
00
05
03
06
04
03
FE
FF
FF
FF
00
07
FC
FC
07
00
02
01
02
02
FF
FE
02
06
FD
FA
FF
FF
00
01
00
FF
FF
00
FE
01
FE
01
00
02
FE
03
00
00
FD
FE
02
02
01
01
FD
02
FD
FE
00
FD
FC
00
00
FE
FF
FE
03
01
02
00
FC
FC
FF
FE
FC
FE
02
02
02
FE
02
FD
FE
FF
01
03
FF
FF
01
FD
03
00
FD
FE
00
02
00
FE
FE
01
01
03
FD
FE
FE
00
FE
FC
00
02
02
FC
FF
FE
01
FF
FE
FF
01
00
00
FC
00
FF
FE
03
FD
02
00
00
FE
02
00
00
FD
02
02
03
01
02
01
FD
00
FD
00
FF
02
01
FF
01
FF
FD
FE
01
00
01
02
00
FF
FE
03
01
FD
02
00
FD
FD
FF
FD
03
02
FE
02
FE
FF
01
FE
FE
00
FE
FE
FE
FF
03
FE
FF
FE
FE
00
01
00
02
03
FD
FF
FD
00
02
FE
FE
00
02
00
02
02
FF
FE
FD
FF
FE
FF
FF
00
FD
00
02
FD
01
FE
00
02
FF
02
FF
00
FF
FD
02
FE
00
00
01
00
03
02
FD
00
00
02
00
FD
03
00
FD
FE
FE
FF
03
01
00
FD
03
FD
FD
FE
02
FE
FE
FE
00
FE
FF
FD
02
02
01
02
FD
FD
FE
00
02
00
FC
FF
FF
00
01
00
FE
01
FF
FD
FD
FF
FE
02
00
FE
FF
02
FD
FF
FE
01
FE
00
02
00
00
FF
01
FF
FE
FD
FF
01
FD
FE
01
FD
02
02
FF
02
02
01
FD
FF
00
FF
00
FC
FE
01
FF
00
FD
FD
03
00
02
01
FF
01
FD
FD
FF
FF
FD
FC
FE
00
FD
FE
FF
01
01
FE
FE
00
FD
FC
FF
FD
FF
02
FF
00
02
02
00
02
03
FD
00
01
00
FE
02
01
FE
00
FE
01
00
FD
FF
FF
01
FE
01
02
FE
FF
FF
FE
FF
01
FD
FF
FF
00
FD
00
FD
01
FE
02
FD
FD
02
02
FF
00
FE
02
FE
FE
FD
02
FE
00
01
FC
FD
FF
FF
02
01
FE
02
FD
00
02
00
01
FD
FE
FF
FE
02
01
02
FD
FE
00
00
FD
FE
FE
00
FD
FD
00
02
FD
FD
00
FD
FD
FD
FF
01
00
FE
FF
FD
FE
FD
01
FF
FE
FD
03
02
01
03
FD
03
00
FC
00
01
FF
00
03
FE
FD
01
02
FD
FE
FD
03
FE
00
FD
01
FD
FE
02
01
FC
FD
FF
FD
FD
01
FE
02
02
01
01
00
00
03
02
02
01
01
01
FF
FF
FF
03
FE
FF
FD
01
FE
FF
FF
01
02
FD
03
00
FF
02
FE
03
03
FF
FF
00
FF
02
01
01
00
01
02
FD
FE
FF
01
FD
FE
00
00
01
00
FC
03
FF
00
FD
FF
01
00
FF
00
01
03
FF
03
00
02
FD
FD
00
01
FF
FD
FF
FD
FE
02
00
03
FF
02
01
FF
FD
01
FE
FF
01
01
02
FE
02
FE
02
03
02
02
02
01
FF
00
FD
00
FE
00
FF
00
FD
00
FD
01
02
FF
FE
FE
FD
03
00
00
03
FD
FE
00
01
FE
00
01
02
FE
02
FD
03
FE
01
01
FF
FF
01
FF
FE
FE
FE
FF
02
01
FE
FD
00
02
03
00
FD
00
FD
01
FD
FF
FF
00
FF
01
FE
FF
01
02
FE
FE
01
FD
FD
FF
FE
FE
FE
FC
02
FF
01
FF
02
02
FD
FE
FF
02
02
FD
FF
FE
FD
01
FF
FE
FF
01
00
02
FD
03
FD
00
FD
FF
02
01
01
00
FD
FF
FC
01
00
FC
00
FF
FE
FF
01
FE
FF
FF
FD
00
FE
FD
FE
FC
FF
02
01
02
02
02
FE
FF
02
01
FD
00
FD
02
FE
FF
01
FE
FD
FF
02
00
02
00
FF
02
00
FE
FF
01
FF
00
FD
FD
FF
01
01
FC
03
03
FE
00
FE
03
01
FE
FE
FD
FF
02
FD
02
01
FE
01
02
03
FD
FF
01
FF
00
FE
FD
01
FD
01
00
02
01
01
01
00
FD
FD
00
FE
FD
02
02
03
01
FD
FD
FE
03
FF
03
02
02
FE
FF
00
02
FD
02
01
01
01
02
FD
FF
FE
03
FF
03
FE
00
FE
00
FE
FD
05
09
01
02
07
03
04
06
FE
FE
04
02
03
F7
FF
06
03
03
FE
01
FF
03
FF
02
FE
FF
FC
FF
FE
FD
FE
FE
01
FF
01
04
00
02
FD
04
00
03
01
04
01
FD
FD
FA
00
03
03
FA
FC
FC
01
02
00
FD
FE
06
05
FF
00
00
FE
FE
FB
01
FE
00
FF
FD
FF
FD
06
01
02
01
01
02
01
FF
FE
F7
FF
04
00
FD
F4
02
06
05
01
07
00
FB
00
F4
02
00
FE
FB
F9
01
01
02
FE
FF
02
05
FC
FF
01
FF
02
01
FC
01
01
FD
FF
FC
FD
00
01
FD
FA
01
03
04
FF
01
01
FF
05
03
00
FE
01
FA
FB
FF
03
07
05
02
FA
FD
03
02
04
FB
FE
00
02
00
FC
FD
01
04
FB
FC
FF
03
FE
F6
F7
FE
02
03
FC
FD
FD
00
03
03
03
FF
01
FA
05
02
04
FC
03
06
02
00
FD
FC
FA
FE
FD
06
04
FE
FB
F9
06
FF
01
FF
F8
FF
01
03
F9
FC
FE
06
01
01
FB
02
00
FF
00
FC
FE
FB
07
00
02
FE
04
09
FF
FA
02
04
00
FE
F8
02
0A
06
FE
FF
FA
F9
FC
02
03
03
01
01
00
FB
FF
00
FF
00
02
00
05
05
FF
03
FE
02
01
FE
02
01
07
FD
FE
FD
01
FE
01
FD
09
03
01
FB
F6
01
01
06
FD
01
01
03
04
FF
02
04
FB
FC
F4
00
07
01
02
00
02
05
FF
02
FD
FF
FF
00
FF
00
03
00
03
FD
FE
00
01
FF
03
04
02
03
FD
FF
03
00
08
FF
01
FD
04
02
03
FF
FF
01
02
FD
01
03
03
02
FF
01
FF
03
03
FD
02
01
02
06
03
FD
FE
01
FF
00
FF
02
FC
FB
F9
00
03
05
04
00
03
04
02
04
01
FE
FE
FE
FB
02
02
FF
00
06
02
00
FD
01
01
01
04
FF
FD
FF
01
00
04
FC
FE
FD
FC
01
01
00
F6
F7
03
03
04
FD
FD
05
FD
FE
F6
FA
FC
FB
FC
F5
F9
05
FD
FC
00
FA
00
00
01
FC
FF
02
00
FC
03
02
01
01
FA
FC
01
01
FB
FD
03
01
04
03
FF
FA
FE
01
FD
FC
FF
03
06
FD
FC
02
04
05
FF
FC
FE
05
03
02
FE
FD
04
05
03
00
FA
FF
03
03
03
FC
01
09
FF
FD
FF
00
00
02
FB
F8
FD
03
FD
FE
FA
04
0A
02
05
01
05
01
F5
FC
00
00
FF
FE
FC
FD
02
06
FB
01
04
07
01
03
FD
FF
01
04
00
FD
04
06
02
04
FF
01
03
00
00
FD
01
02
F9
FE
FD
05
01
00
03
05
03
F8
00
FC
06
02
01
05
F7
FA
FF
03
01
FC
FF
01
05
FF
FF
0B
00
03
FB
02
02
FF
01
FA
FE
01
03
F6
FF
F9
04
FC
FB
02
03
00
FE
F6
04
05
02
FB
F9
00
02
00
FC
02
FD
FE
02
FF
06
03
FD
FC
03
04
03
FA
FB
00
09
08
FB
FE
04
07
03
FF
FD
03
05
F9
01
FE
05
07
10
05
FD
FC
FF
0A
F9
FD
FC
FD
00
FD
01
02
FD
03
FD
04
FB
F6
00
04
04
FA
FD
07
02
04
F6
FC
FB
03
04
FD
03
04
FB
04
F9
FF
FC
FC
FD
FE
04
02
00
FF
FD
04
FF
01
0A
FF
02
02
FA
FD
03
04
FB
FC
FC
04
06
FE
05
F8
FC
FD
FA
FF
04
FF
00
03
05
09
FB
FD
FF
00
03
FD
01
03
FF
FD
FF
00
00
FB
FC
FE
04
00
FF
FE
00
01
02
01
06
FE
03
FF
00
04
02
FD
FE
FF
02
01
01
00
FA
FA
00
01
FD
02
FE
F6
F4
01
01
04
F9
F6
00
08
FD
F7
FF
01
FF
FE
F9
FE
03
FE
FD
01
02
02
01
FF
03
FD
FC
00
04
01
00
00
01
07
FF
FD
FE
01
03
03
FF
03
FF
F9
FE
02
06
00
FE
FD
00
01
00
FE
03
FF
04
01
02
02
04
07
09
04
09
FD
04
FE
FF
02
01
FF
FE
FF
FF
00
05
02
FB
05
01
00
04
FF
00
01
05
FF
02
FA
01
FF
FE
01
FE
FE
FD
00
01
03
04
03
01
FC
FC
FF
FF
FF
FD
FD
00
00
01
03
FC
FD
FC
03
FF
F9
02
03
02
03
01
FF
FE
FF
02
00
07
08
07
00
01
04
FE
02
02
06
03
FE
01
FE
05
F6
FA
01
00
0A
04
05
06
FB
03
03
03
03
FE
FE
01
FD
02
03
00
FE
05
03
01
03
03
02
09
FF
01
FC
FD
FE
02
FF
FC
03
01
0B
FE
FE
02
FF
04
04
02
01
FE
F8
06
03
FD
FC
FE
05
02
02
F9
08
FF
01
00
FD
F8
04
FD
FE
02
FB
03
FE
03
00
00
FD
01
06
08
FF
03
04
FF
FE
FC
03
04
F9
FE
03
05
FF
FB
FC
05
FA
04
FE
00
FD
FE
F7
04
05
06
04
00
03
04
00
03
01
FE
FF
00
FD
02
FB
02
06
FF
FF
00
02
06
05
03
00
02
01
FF
FC
F5
FB
05
01
03
FD
03
05
04
06
0B
03
FA
06
FE
06
08
FE
04
FF
FE
FF
01
04
02
04
04
00
02
00
03
04
02
FE
FD
05
02
FF
00
01
01
00
FD
00
FB
02
02
FD
FF
FC
FC
FC
03
FD
00
01
03
06
FA
FD
03
03
FF
02
00
02
00
FD
06
01
09
00
FA
06
05
03
06
FE
01
02
02
FF
00
FF
FE
03
03
00
FB
FE
01
01
01
FA
FB
FF
01
00
06
03
02
FF
00
03
FC
00
01
03
FF
01
01
00
00
FF
00
00
05
00
FB
FD
FE
FE
FC
0E
0E
07
03
06
02
01
02
03
01
02
02
06
02
04
FC
FC
03
FF
01
FB
FD
FC
00
00
02
03
FD
FC
F9
03
01
02
01
FC
00
03
02
FD
FE
01
01
00
05
03
00
FE
FE
FF
04
FD
FC
FE
FD
00
FF
FE
01
01
02
FA
FC
FF
01
FE
F5
FF
02
FE
FE
FA
FC
00
01
02
FE
F9
FC
01
02
FE
FB
01
FD
00
00
00
FD
00
01
FC
03
00
03
05
00
01
FF
FF
02
FC
01
01
00
FE
01
03
03
FE
00
01
05
04
01
05
02
04
02
02
02
01
01
FD
01
FD
FE
FA
FF
01
FF
FC
00
01
FF
02
F6
F9
02
04
02
F4
FC
01
FF
01
FF
00
01
FE
02
FF
05
03
FE
03
FE
02
00
FD
FE
00
02
00
01
02
FE
FD
03
FF
00
FD
04
03
02
00
03
01
05
03
FF
02
06
FF
FC
FD
07
01
FF
FB
00
03
FD
FC
01
04
02
00
FE
FA
FE
03
02
06
05
FA
FE
FF
FF
FF
FE
00
FE
00
02
0B
FE
FF
FF
F9
FF
FD
FD
05
03
FE
04
06
05
02
03
FA
F8
04
08
05
F7
F4
FE
FF
04
FE
01
FE
FC
FA
FD
03
FD
FE
FE
04
09
02
00
02
02
01
01
FB
00
04
03
FF
FD
FF
07
FE
01
FF
01
00
FF
05
00
F9
FC
02
0B
02
01
03
05
03
04
FF
01
06
FD
FF
FF
F5
FA
FD
FC
04
F6
F8
FA
00
02
FE
FC
FD
FE
FA
FC
01
FD
FC
F8
F8
FB
F9
FF
04
01
05
00
01
FF
FD
FF
FE
01
FF
FE
06
00
01
FA
04
FF
FD
F9
F6
02
01
01
FE
03
FD
04
FD
FF
03
02
FB
FE
FC
00
00
FA
01
00
F9
FD
FD
01
FD
FB
00
FD
FE
FB
FA
01
01
04
00
03
00
00
FF
FF
04
FF
FE
00
FB
FB
FD
02
FD
FE
FD
02
FF
01
FD
FD
00
03
FC
02
02
01
00
01
05
FF
FB
FC
FF
02
FB
00
FD
04
F9
F7
FD
FF
FC
F7
FE
00
FD
01
05
04
03
03
05
03
02
01
04
01
02
FC
00
FB
00
02
FF
FC
FD
02
FD
FB
03
05
02
FE
FD
FA
FE
01
02
04
03
06
00
03
00
02
05
03
02
FF
02
01
FC
FF
02
05
FE
FF
FE
06
01
06
02
03
FE
04
03
05
00
FE
00
FC
FC
04
01
FA
FC
FE
00
01
03
03
03
02
05
05
06
04
FE
02
FD
02
00
FE
02
F7
FD
02
FE
FE
FA
FD
FF
FE
FC
FE
02
03
FF
FE
02
00
FD
00
02
06
01
FD
02
00
02
00
FC
03
FE
06
FF
FB
02
00
05
00
02
01
FE
03
0C
FE
01
00
F8
FE
FE
04
04
FF
02
07
06
05
00
FD
05
00
FE
FE
03
FF
02
FF
FC
02
FB
02
01
02
00
FD
FE
FF
FF
FD
FE
FC
FF
FB
05
01
05
04
01
02
01
05
04
01
00
05
06
01
FE
FD
F8
FE
06
FD
03
00
FD
04
FE
04
02
FB
01
05
02
FA
03
03
03
FE
FC
01
03
FF
FC
00
02
FF
03
01
08
FE
FE
06
02
05
01
01
05
04
02
07
01
03
05
00
06
00
FA
FE
FC
FC
FE
FC
FB
FA
FD
01
FA
F9
02
04
00
FB
FF
FF
00
FD
FE
FD
FB
02
03
03
00
FA
F8
02
03
FF
FF
01
01
01
0F
07
05
06
0A
0E
08
FE
02
02
06
FE
01
02
05
07
01
FC
F5
06
00
05
01
03
FD
FD
05
FC
FE
00
FC
00
FF
06
04
02
04
01
03
04
FC
01
FF
FF
00
01
02
03
06
FF
04
FD
04
03
FE
FE
00
04
02
04
00
03
02
03
04
04
00
00
00
01
02
01
06
02
FE
FC
FE
07
00
FF
FF
FE
03
FE
00
FD
FF
04
02
00
02
04
02
FF
00
01
04
05
03
01
00
00
05
03
FC
FF
FF
03
FE
FF
01
01
FF
00
0D
06
FF
00
F9
07
05
02
04
03
02
FD
03
03
FE
FF
04
02
FF
02
02
FE
FF
03
01
00
FF
02
02
FF
FE
02
01
FD
FD
00
02
00
01
00
FF
00
FF
00
00
FF
03
FF
FD
FB
01
FE
FD
FC
FE
FD
00
00
01
FC
00
FB
FC
FD
FC
01
FE
FE
FD
02
FF
FF
FF
01
FF
FF
FB
FD
03
01
FD
FB
FF
FF
01
01
FF
FF
FC
FC
FD
02
03
01
FE
FC
00
00
00
FE
00
FF
FB
FB
03
FF
FC
01
FF
00
FE
01
00
FC
FC
FC
FD
FF
FF
00
02
02
00
FB
FC
FF
01
FD
FF
02
FE
FD
FB
FD
FE
00
FF
FE
FB
FE
FF
FB
00
FC
00
00
FE
FF
FC
FF
FD
FB
00
01
FE
FF
00
FF
00
FF
01
02
FC
FF
FF
01
01
FC
FB
FF
01
FF
FD
FC
00
00
FE
FF
02
00
FB
FE
00
00
FD
FD
FE
00
FE
00
FF
00
FE
FE
00
00
00
00
FC
01
FC
FC
FC
01
FB
FC
FE
FE
01
FB
02
FE
00
00
FE
FC
FF
FC
FB
FD
FD
FF
00
FF
FE
FF
FF
00
FF
01
FF
02
FF
FF
FF
FD
00
03
FF
00
02
FD
00
03
FF
00
FF
FF
FF
01
00
FE
FF
00
FF
01
FC
FF
00
01
FE
01
FB
03
FF
FC
FE
00
FD
FC
FF
FE
FF
FD
02
FE
FC
FC
FB
FD
FC
FE
00
00
FB
FF
01
02
FF
FC
FD
00
00
FC
FE
FF
00
FE
FD
01
FB
FD
FC
01
FF
FF
FF
FE
01
FE
FD
FE
00
FC
01
00
FE
01
FF
00
FC
FE
FB
FE
FF
FC
01
FE
01
FD
FE
FD
FD
FE
FE
03
01
FD
FD
03
01
FE
00
00
01
01
01
FC
FF
FD
FE
00
00
00
FE
FC
FC
00
00
FF
FD
FC
FC
FB
FB
FF
00
FE
02
01
01
FD
00
00
FC
00
00
FF
01
FF
01
00
FD
FD
FF
FD
FE
FE
00
01
02
00
03
00
FB
02
01
FD
FE
FC
FE
FF
FF
FC
00
FD
FE
01
FD
03
FC
FF
FF
FF
01
FB
FD
FE
FD
00
FF
FD
FE
FC
FE
FF
FB
FB
01
01
01
00
FA
FF
00
FF
FF
FF
01
00
FE
01
FD
01
02
FC
FE
FF
01
00
FC
F7
FA
FB
04
02
FB
01
04
01
FF
01
FA
FB
FD
FC
03
01
FD
F7
00
04
01
FE
F9
FC
F7
FB
FD
FE
FE
FC
FB
FD
04
FE
FC
FE
00
FF
01
FF
03
02
FE
01
02
06
01
FF
01
01
01
01
FF
06
FF
02
04
01
07
FE
04
FF
04
05
03
03
00
FE
01
00
03
FD
FA
FB
FD
FD
06
05
02
04
FF
00
FE
FC
FA
FF
03
FE
FE
00
01
FD
FC
FD
03
04
FE
FC
FD
00
01
01
FE
FF
03
FE
00
02
02
00
04
03
06
FD
FE
FE
FC
FC
03
03
07
FE
FA
01
01
07
08
05
FF
04
06
03
FE
00
03
06
01
FD
02
07
03
00
01
FE
FF
FD
FC
06
05
04
09
07
FE
FE
FD
06
03
06
FF
FD
04
06
0A
FB
01
FD
FA
FB
FF
FE
FB
F6
FB
08
00
03
FC
02
07
00
04
03
05
FF
FD
FF
02
FF
05
02
FE
FE
F9
01
06
06
FE
F8
04
09
05
02
03
0A
04
05
06
02
06
05
04
06
01
FD
00
01
01
04
FC
FB
01
FD
FD
FD
02
0E
15
06
FF
03
0D
04
00
01
0C
05
FB
00
FB
04
02
FC
08
F8
F7
06
06
08
FB
FA
F9
FF
04
03
FD
FE
FC
FC
00
FB
F9
00
02
FC
00
04
FF
FD
02
02
FF
00
F6
01
00
04
07
09
FF
05
03
FF
02
00
02
FD
01
05
FE
09
FD
FD
01
FF
01
F3
F2
09
FD
FB
FD
FD
FC
FE
FA
01
01
FD
00
FF
FB
FA
FD
01
02
00
FE
FF
00
00
05
03
FE
FE
FE
F9
FA
FE
FE
01
FE
FF
05
02
FF
00
FD
FC
FE
FC
FE
FC
03
00
00
00
03
FE
F4
F1
FB
01
01
FD
FD
03
FC
FB
FD
FE
01
F8
FF
FC
FB
FD
02
07
02
07
07
03
01
FC
FE
03
F9
FC
FF
FE
FE
03
09
01
01
FE
00
04
04
00
FE
FC
FC
00
00
02
FD
F6
FF
06
01
04
02
03
FB
02
02
02
EF
F8
01
03
FC
F9
FF
FB
FB
FE
F9
01
01
02
01
03
03
00
FC
FF
03
08
05
00
FF
FF
05
07
FE
04
02
04
FF
FA
FC
07
04
01
00
02
FD
00
02
FE
FF
FF
04
06
03
01
04
03
02
FF
FE
FF
00
01
02
04
03
04
FE
05
04
05
03
01
FA
02
FB
FD
FE
00
01
F8
02
01
FF
FD
F6
02
FF
FD
02
FA
0B
FE
03
06
07
FB
01
FE
FD
04
FF
05
02
08
FD
FD
04
FF
02
00
04
00
06
00
FF
00
00
FA
02
04
06
FF
01
FF
00
01
02
07
FC
FC
01
FC
07
FF
01
01
FC
00
09
01
FF
02
09
04
FE
FC
F8
FC
02
07
05
FD
FB
06
01
07
FA
F7
04
04
00
FC
05
07
01
05
FD
FA
00
F4
F3
FC
03
06
FA
FB
02
FF
00
01
FF
07
03
FD
FF
FC
FF
05
07
05
03
00
FF
04
04
FE
FB
F9
02
02
FC
FA
FF
FD
00
FC
00
FF
01
00
01
FD
FD
F9
FC
FE
FA
FF
FF
03
06
FE
F5
F8
04
FD
F9
FB
FC
FB
F9
F8
FD
04
01
00
FE
01
07
FD
FB
F4
02
01
00
03
03
FF
F7
F7
FB
FB
03
02
00
FE
03
FB
00
FB
FE
FF
F9
FC
04
04
03
01
06
06
01
FC
F9
F4
FD
02
01
0A
0B
00
07
FF
03
04
03
01
FC
04
01
00
05
01
04
03
FC
01
03
01
03
04
03
06
00
02
01
04
02
07
FB
01
01
00
03
FE
03
00
05
04
FC
FC
02
04
08
02
FE
07
00
FC
03
03
01
FD
08
0A
05
03
07
00
FB
01
03
FD
04
FF
FC
00
FE
FF
F9
02
02
FA
08
05
01
00
FB
09
08
FE
FE
04
FE
FC
00
FB
02
02
01
02
FC
03
04
05
03
09
05
FF
FD
03
02
03
01
FD
03
02
07
FC
F9
06
03
02
F8
FF
05
04
FF
01
FC
08
0A
07
03
06
04
03
FF
FF
06
07
FF
F9
FE
FD
05
00
01
01
05
04
03
FE
04
FD
07
00
FD
02
04
FC
FD
FB
03
02
FB
FC
01
04
03
FD
FB
FD
FF
FB
05
01
FB
FF
FB
01
00
FD
02
FE
FD
FD
FE
04
01
FB
FB
FC
FF
01
01
FD
01
02
FC
03
05
03
03
03
00
04
03
03
02
0A
FF
F9
FC
FF
05
03
00
FC
01
06
FD
FF
FF
01
FF
FD
FE
FE
F8
05
02
00
FF
FC
01
00
00
04
07
FC
FA
FB
FC
02
04
00
FE
00
FC
FE
FD
00
FF
03
FD
FE
FF
FC
01
FB
FF
04
FC
01
FF
01
FF
02
F9
FF
06
04
FD
FF
02
FC
FE
F8
FB
FE
FD
03
FF
FC
00
FA
02
00
01
00
00
04
02
00
03
FF
06
07
FC
03
03
03
02
FF
02
FC
07
04
03
FF
FA
F3
FF
02
FE
04
FD
F7
F8
FD
FA
00
03
00
FB
FE
FE
03
FF
05
00
00
01
FF
03
FB
00
00
FE
00
FB
FE
02
06
05
03
FF
FE
FF
01
FF
FB
FB
04
FF
08
09
F6
04
06
06
0A
04
04
FE
00
0B
06
02
04
09
09
FD
FF
04
08
04
FF
FA
08
08
03
03
FA
00
00
03
00
03
04
FE
03
00
03
FE
FD
FF
FB
FC
FF
FD
FF
03
0A
FF
00
02
FF
FE
FE
00
02
FF
06
02
FD
01
FE
FF
06
03
06
01
FD
04
00
00
02
FD
01
02
FF
FE
02
FF
FF
00
FF
00
00
FC
01
01
05
FF
FD
FB
FC
02
FE
00
03
00
FF
04
FD
05
00
FF
FF
FD
05
04
01
FD
FF
03
02
05
FE
00
01
FD
F9
06
05
05
06
FE
04
08
03
FC
02
01
06
01
00
00
FF
00
01
FF
02
FC
01
01
FA
FB
02
01
FD
FC
FE
01
FE
FE
00
FD
FB
FD
FE
FE
01
FA
02
00
FF
00
FC
FB
FD
01
FF
FC
FC
00
FF
FF
FE
FC
00
FD
FB
FE
FD
FD
FC
FB
FC
FE
FB
01
FC
00
FC
01
FD
01
FD
FA
FC
00
01
FE
FE
02
FC
00
01
FF
00
FF
FF
FD
FC
FE
F9
FC
00
FF
01
FD
FE
00
FF
FF
01
FD
01
FE
FF
00
FC
FD
FF
FE
FE
FF
FD
FD
02
FF
00
FE
FC
FE
FF
FE
FD
FF
FE
FD
01
FE
00
FC
FB
FF
FC
00
01
01
FE
FF
FF
00
01
00
02
00
01
03
FE
01
FD
FF
03
03
FE
FE
01
FF
02
FC
FF
01
00
FC
00
FE
FD
00
FE
FB
FE
02
01
FC
01
FC
02
FF
FC
FD
02
02
FE
FC
00
FD
FA
FC
FD
00
02
FC
00
00
02
FF
FD
00
FF
01
FF
03
00
02
FE
02
FF
FE
00
FB
FC
FD
FD
02
FE
FD
FF
F9
FD
FA
01
FF
FC
FF
01
01
00
02
FD
FF
00
03
02
FE
FF
FD
FE
FF
00
00
FB
FC
01
FB
01
FF
02
04
FC
01
00
FE
FF
FF
02
FC
02
03
01
FD
FD
FD
01
FF
FB
FE
03
01
00
FA
FD
01
01
FF
FB
FC
FE
FC
00
FE
FE
FC
FB
02
FE
00
FF
FE
01
FF
01
00
FF
00
00
01
FF
01
01
FF
FE
FE
FE
04
FD
FD
FC
00
FF
01
01
FC
FC
00
F9
FE
FC
FB
FB
FF
01
FE
FF
FD
FF
FD
FD
02
FE
00
FF
02
00
FE
FF
00
FF
FC
FF
00
02
FE
FA
02
01
FF
01
FC
00
00
FD
FE
FB
01
00
FE
FF
FF
FE
01
FE
02
FF
00
FD
FE
FD
FD
FD
01
FD
FE
FC
FF
01
02
FE
FE
FE
00
FC
FE
FD
FE
01
FD
FF
FB
FC
FF
00
FE
00
01
FC
FC
FE
FE
FC
FD
01
00
00
FF
FB
FB
FD
FF
FF
FB
FF
FC
FC
FB
00
FE
FF
FE
00
FC
FF
FF
00
FD
FF
01
03
FF
FC
FF
FF
FC
FD
FD
FE
00
01
00
FC
FE
FF
FD
00
FF
FF
00
03
FF
FC
04
01
04
02
00
00
02
FC
FF
FD
04
04
02
FC
01
0B
00
FC
02
00
07
08
05
05
07
01
02
04
FD
01
00
FC
FF
FE
03
FB
FA
FA
FC
FD
03
FE
FC
00
FF
02
05
04
02
05
FC
03
05
01
02
F9
01
00
FF
FD
FC
FC
05
01
FB
FF
FE
02
00
00
00
00
01
04
02
FD
01
FE
FE
FB
04
FD
01
01
00
0A
02
01
FC
00
05
02
03
00
01
02
10
08
02
03
FC
06
FB
FB
FD
FF
00
03
FC
FD
F9
01
FF
FF
FD
FF
01
01
FD
00
FC
00
FC
FF
05
05
01
FD
F7
FE
00
03
FF
F9
F6
FD
FC
02
00
00
FD
04
05
05
0B
FF
00
05
06
06
02
01
01
04
F6
FF
01
08
02
FC
FC
07
05
00
08
01
08
FD
FC
05
00
02
F9
00
04
F9
FA
02
00
FE
FE
F7
08
00
FD
08
FF
05
02
03
0B
06
0E
05
03
01
FB
01
08
05
FD
05
00
FB
FA
01
02
00
FD
FC
F9
F8
03
04
FB
F8
FB
00
04
FB
01
FD
FC
02
02
02
06
07
FA
FC
08
04
0C
01
FE
FF
00
FA
05
06
01
06
05
FC
02
04
0B
02
FD
FB
FE
0B
05
00
FE
01
00
00
FA
02
02
02
FD
FB
FF
03
00
00
FC
02
04
07
02
01
05
05
01
FC
FC
01
02
FF
FE
00
FE
FC
FF
FF
01
FE
01
03
06
FF
0A
FD
FF
00
FF
0C
FE
FC
01
05
05
00
FF
FE
04
00
FE
FE
FC
FE
FD
01
FC
FE
FB
FC
FF
04
04
04
02
00
FD
02
03
06
FB
00
FF
00
03
FC
02
01
FD
FC
00
01
FD
FC
FB
04
00
06
03
03
FA
05
06
08
FE
03
03
05
FE
FA
FF
FC
FF
F9
F8
FC
FE
FE
FF
F9
05
05
04
02
04
FA
FD
FE
04
05
FF
00
FC
02
01
FE
02
FD
FE
03
FE
01
FC
FD
FE
01
04
02
00
00
FE
F9
F9
FD
FE
01
FF
02
05
00
FA
FF
02
04
08
FF
04
06
02
FE
FC
FD
01
01
FA
03
00
FD
FB
FC
FF
FB
02
01
FD
FD
FC
01
02
FF
03
05
02
FD
03
01
07
02
03
05
FF
FD
03
FF
00
FC
00
03
FE
FE
00
03
05
FE
FE
04
02
01
FE
00
FF
00
FD
FE
FD
F8
00
01
FD
FC
03
02
03
02
05
FE
00
03
FE
FF
01
05
03
FD
F8
F9
01
02
FD
FE
FF
FE
05
04
01
FE
01
04
F7
FE
04
00
05
FD
02
03
04
FC
02
02
FE
FD
FA
FB
FE
FC
FC
00
FE
FE
FC
00
FF
FF
FF
01
02
00
01
FD
FD
FD
05
FD
01
FE
F6
FE
FF
FF
03
FF
05
03
0C
02
FE
FF
F6
F8
01
05
FD
00
FD
03
FB
FA
FD
FD
02
FB
F9
F4
F9
03
FD
FE
FC
01
01
FD
01
04
06
09
01
00
05
07
FE
02
01
FE
FF
02
FC
FA
F2
F6
05
FD
00
03
FF
03
FA
04
FD
FC
FE
FF
FF
FA
FA
FF
FE
00
FF
FD
FE
F9
FC
FD
01
00
F9
05
06
02
FF
02
01
01
FB
FF
03
FE
F9
F8
04
04
01
FC
06
FC
F9
FA
03
07
00
FE
FA
F8
FA
FD
FE
03
01
01
FA
01
05
00
04
FD
02
00
04
04
05
03
01
03
01
FC
FF
02
00
FE
FD
06
03
00
0C
03
05
FF
04
02
02
02
00
07
05
00
F9
F8
FF
07
FD
00
FD
FF
F7
FE
FE
02
05
03
01
FE
04
03
02
03
02
02
05
01
01
06
03
07
01
00
02
FB
FD
03
01
00
FB
05
02
FD
00
02
06
03
FF
FF
FE
03
04
FF
02
FF
09
04
07
02
F9
02
03
01
F8
FC
04
03
FA
FF
06
00
00
F9
00
06
07
0C
01
01
05
07
FF
FF
02
FF
00
FB
00
FE
FD
FE
00
00
FF
02
0C
04
02
04
01
FA
F9
00
04
FF
01
F8
FA
FA
FA
FF
00
FA
F9
F8
FF
FC
05
FE
00
00
01
00
01
00
FF
05
FB
F7
F7
FC
00
F6
F7
FF
FD
FC
FF
FE
04
FE
FD
07
FE
00
07
00
03
01
01
05
01
F9
FC
01
01
04
FF
00
07
02
FF
00
FE
FE
00
03
01
04
01
06
04
00
FF
00
01
03
FC
FC
02
01
04
FD
F8
FB
02
03
04
FE
FB
FB
01
FD
FB
FD
02
02
FA
F7
FB
FE
01
01
F4
FF
FE
FF
FF
05
05
02
00
FE
01
03
04
F5
06
01
02
04
F9
03
FC
02
FF
FC
01
02
01
02
03
FB
05
03
06
F9
01
07
FE
05
FF
04
03
FD
FE
01
FF
FF
F8
F9
05
FF
06
FD
FA
F9
03
08
08
09
FC
FD
FE
FE
05
FB
FE
FF
02
06
00
00
01
06
06
FF
00
02
08
07
01
04
07
04
02
FE
04
03
04
01
00
F4
FE
01
FF
01
FC
FA
FB
FF
FE
FF
06
FE
04
08
00
04
05
08
06
F6
FF
FD
02
06
01
06
FB
FF
06
08
06
01
FB
FE
03
06
06
FC
00
FF
03
06
0C
01
01
01
02
0E
04
01
FB
FE
05
FF
01
FC
00
FF
FF
FC
00
04
00
F9
F8
F2
F5
03
02
FA
FC
00
F9
FC
03
03
FF
06
FF
02
00
02
FF
FA
FA
F8
00
01
FE
FE
04
00
FF
F6
00
05
00
FD
F2
03
01
01
01
F7
02
01
02
F8
00
FD
FF
09
01
F6
FF
FA
F9
F7
FB
FC
FF
01
FE
FC
02
00
FF
FF
01
FF
01
04
03
00
FE
FC
FF
FB
00
03
FD
FE
FA
FD
FE
FB
FB
FD
FE
03
02
02
F5
FD
01
05
02
FF
01
02
01
01
FA
FF
FB
F2
F3
FC
06
F7
F9
F8
FB
FB
04
05
00
FD
00
04
03
03
FE
FF
FE
FD
FF
FC
FD
04
09
03
FB
FA
01
FD
02
FF
F6
03
00
FE
FE
FC
00
FE
02
03
06
FE
FF
FF
08
0E
FF
05
00
FF
02
01
FD
01
FF
00
FD
F9
01
04
FF
03
01
FE
02
02
0B
02
FD
FD
00
FC
FE
FE
00
FF
03
08
07
01
01
04
07
06
FE
01
02
00
FF
FF
02
FE
FA
00
FD
FD
05
03
04
04
01
02
01
02
00
00
03
03
FC
03
05
01
FC
FE
06
FF
01
FE
02
04
04
00
FD
03
04
02
FB
FE
FF
FF
04
FC
02
FC
03
01
06
07
00
00
07
0D
FC
F8
01
03
06
FF
02
01
02
FE
04
00
03
02
01
FE
FE
07
FF
00
FC
03
04
FE
03
03
01
02
03
FF
02
FD
02
03
03
FF
FD
03
01
01
FB
FF
FF
FF
FD
FF
04
03
FB
03
01
01
FE
03
05
03
02
00
03
02
09
FE
01
02
00
FF
04
05
07
01
FE
06
07
06
02
02
07
06
09
FF
00
FF
FF
FF
FF
05
FD
00
01
FD
06
FF
FC
FC
FD
03
F4
FD
02
00
FE
02
01
03
00
FC
FC
02
02
FC
01
FF
00
FF
00
02
00
FF
02
00
02
02
00
02
02
07
05
01
03
01
00
FE
F7
00
01
02
FA
FF
FF
FE
F4
FE
01
02
02
FA
03
0A
03
09
03
02
FE
FE
FB
00
FD
FF
06
FD
03
00
04
04
04
01
00
01
FF
04
03
FD
00
F9
00
FB
03
02
FF
FF
03
FF
FC
FC
FE
00
FF
02
F9
FD
FD
03
00
FB
00
FD
06
FD
FA
02
02
0B
06
FF
01
FC
FF
03
00
FF
01
05
FC
FF
06
02
03
00
FF
01
05
FE
FE
01
02
FE
FB
FD
FE
06
02
03
03
FE
05
02
00
00
FF
06
00
02
01
02
03
01
03
01
01
00
FD
01
00
FF
FC
04
FE
FE
01
FD
01
FE
FF
06
08
04
05
08
03
04
05
FD
00
FB
FF
FC
FE
FD
FD
00
FE
00
02
FD
00
02
04
FE
01
03
02
00
FE
FA
FE
02
FE
01
03
00
02
FD
00
07
FF
FE
FD
FF
00
01
FF
02
FC
FE
FC
FE
FD
01
FF
FE
02
FF
FF
FE
01
FE
FF
00
FD
03
FE
00
FD
01
01
FD
FD
00
FD
FF
FE
00
01
FE
FF
01
03
03
01
FE
00
FE
FD
FE
FE
03
FE
02
FE
00
02
FD
01
02
FE
03
FD
02
02
01
FE
00
FF
00
FF
01
FE
FD
FD
FD
FC
FE
FE
FE
02
01
01
03
01
01
FE
FF
FF
00
FE
FD
02
FE
FE
FE
FE
FE
FD
FD
01
01
FE
01
00
FF
00
00
02
FD
FF
01
FE
FE
00
00
FE
FD
FE
00
01
FF
FF
FF
FD
02
FE
FE
02
00
03
FE
FE
02
FD
FE
01
01
00
00
FE
FD
00
00
FD
01
FE
FE
01
FF
FE
FE
FF
FD
FF
FC
00
01
01
FF
FD
01
01
01
FF
FE
FF
FE
FE
02
FD
FE
00
01
01
FD
01
FD
FD
FF
FE
01
02
00
FE
00
00
FE
FD
02
FD
02
00
FF
03
FE
02
01
FD
02
01
01
02
FD
FD
FF
FE
01
02
FE
FD
01
FE
03
FF
02
FD
FE
03
01
FD
FE
03
02
FD
FE
FF
FC
02
00
FF
FC
FC
02
02
FE
02
FE
FD
FF
FE
00
02
FF
FE
01
FE
FF
01
02
FF
01
FD
00
01
02
FE
02
FE
00
03
02
00
02
00
00
01
FE
02
01
FF
FD
01
02
02
FD
01
FF
02
FD
00
02
02
02
FF
02
00
02
02
FD
00
FC
FD
FE
FF
FD
01
FE
FD
FF
01
FD
02
FC
02
02
02
01
FF
01
02
02
02
FE
FD
03
FE
FF
FD
02
FE
FE
02
01
02
FF
02
FF
03
FD
01
FF
02
FF
FD
FE
FD
FE
FD
FE
02
01
01
FE
01
FE
FD
FF
FE
FE
FD
01
FF
FD
FF
01
01
02
00
02
03
00
00
02
FF
01
FD
01
FE
00
00
02
01
FE
01
02
FD
02
00
00
FD
00
03
00
02
02
FD
00
02
FF
FE
FF
01
01
FF
03
01
FE
FF
FD
FA
F7
F9
FA
FA
FC
FF
01
FF
03
03
08
0B
08
05
FE
02
03
01
00
F7
FC
FD
FE
FE
FC
FC
00
FD
FC
F9
FF
FA
FB
00
01
FF
05
03
FE
FE
06
06
06
05
FB
03
02
FF
03
FF
00
FE
FC
FF
01
02
FE
01
FF
05
04
01
FE
FE
02
02
FE
00
00
F8
FA
FF
FC
FA
F8
FA
FF
FE
00
03
04
03
FF
04
02
04
03
05
FF
F5
F6
00
FF
FD
F8
FD
01
FC
FC
02
07
01
05
FF
FE
00
F9
01
F8
FD
04
00
00
02
00
00
04
FF
FE
00
01
03
04
02
FE
03
01
00
FE
02
03
06
03
02
07
02
FE
01
08
03
FD
FC
00
FF
02
FB
FC
FC
F8
06
06
09
05
03
01
FC
03
FC
FE
01
FB
02
F9
05
01
01
00
FC
FD
FE
FD
01
02
00
04
02
00
00
FD
03
FD
FC
00
04
FE
FC
04
02
07
FA
FF
01
FC
FF
FC
FA
FD
FA
01
09
05
06
04
FF
02
FF
05
01
03
00
FE
02
FB
FD
04
04
00
FB
03
00
03
03
FD
FC
FB
FD
09
09
09
04
03
06
03
03
07
0B
FD
FD
00
FC
FD
FC
FE
FF
F8
FA
06
04
01
01
FE
00
01
FE
FC
FE
01
FC
F9
00
07
02
03
03
FF
05
08
03
03
FF
01
00
FE
FC
00
00
00
03
05
04
01
01
FD
FF
09
FE
FB
FC
05
01
00
FC
FE
00
FC
FA
FA
FC
03
FE
FD
FC
FA
FC
FC
FB
F9
FE
FE
03
03
02
00
02
01
01
05
07
02
FE
FF
03
02
05
01
03
FC
FE
00
02
F9
FC
FE
01
FF
01
FD
FD
01
01
01
04
07
06
00
03
00
00
05
04
FE
02
04
02
FA
F8
02
02
FC
F9
FB
00
FC
FB
FF
03
09
08
06
04
02
04
00
01
FF
03
FD
F9
FB
FE
F9
FC
FE
02
FF
FE
02
FE
06
02
00
01
07
FF
F9
FE
03
05
01
00
FD
00
FF
00
01
03
FD
FC
02
FE
00
FD
FD
02
FE
FC
02
FE
FF
FF
FF
FD
FE
01
00
02
FF
FE
00
01
03
00
FF
02
FD
01
FE
00
FD
01
FF
FE
FF
FF
FE
FD
02
00
02
01
FE
FD
00
02
00
00
00
FE
FD
01
FD
FF
FD
03
01
01
03
FE
FE
FE
FF
FE
FF
02
FF
FF
FE
FE
FE
01
01
00
03
FE
02
FE
01
02
FF
FE
03
FF
02
01
01
03
02
FE
FF
01
FC
FF
01
00
02
03
01
03
FD
FF
FF
00
FD
00
01
01
FD
02
02
02
00
FF
FF
02
FF
01
FD
01
FE
01
03
FD
00
02
01
FF
FE
FF
FD
00
02
02
FE
00
FF
FE
00
FE
FF
02
00
FE
FD
FF
01
FD
FD
02
FD
00
02
FD
FD
00
02
02
01
FF
02
01
FE
FD
FF
FF
FE
02
03
00
FE
01
FF
02
FD
FC
FD
02
02
03
00
00
01
00
02
FE
FF
03
03
00
00
02
01
01
00
02
00
FD
01
FD
FE
01
FE
FF
02
FF
FF
01
FE
FF
00
01
FE
FD
01
02
00
00
FD
FE
FF
02
01
00
FD
00
01
01
00
01
FF
01
02
FE
FE
02
00
02
FE
01
FF
01
FF
02
01
FD
01
00
00
01
00
01
FD
01
01
FF
02
FD
FF
FD
FE
FE
FE
02
FF
00
00
00
FE
FE
FE
FE
FF
01
FF
00
FD
00
FD
FE
FC
00
01
FE
FE
FD
FC
FE
FE
00
03
02
FE
01
FD
01
FF
02
FD
FE
00
FE
00
03
00
FF
01
FE
FD
FE
02
FD
FE
00
FE
03
03
01
FD
FD
01
00
01
02
01
00
FF
FE
01
FD
FF
FF
FF
00
FF
FD
FF
02
01
FE
01
00
FF
01
01
FE
FF
00
00
FF
01
02
01
01
FE
00
FF
FD
01
02
FE
01
FD
00
FE
FF
03
01
02
FE
FE
FF
FE
FF
01
02
00
02
FD
FF
03
01
00
01
01
FE
FE
FF
FF
FE
FD
03
FD
FD
FF
00
FE
FF
04
06
04
09
05
FA
00
04
02
FB
FD
00
FE
F6
F5
F6
FD
FD
FF
FE
FD
01
FF
FF
FC
00
06
07
02
FD
04
06
FF
FA
F7
FF
04
01
FC
FF
01
FC
FF
01
02
03
05
FD
02
02
FF
06
03
FD
FD
05
00
04
FB
FB
03
02
FF
FB
01
06
FF
FD
FB
01
01
00
02
00
04
03
04
02
07
FE
01
FF
01
FE
F8
FD
FF
FA
FD
F0
02
FD
FB
03
04
09
04
02
02
06
FB
FF
FA
04
03
FE
02
02
FE
FD
01
01
00
FE
03
03
02
F8
02
00
00
05
08
FE
FF
04
05
04
FF
08
05
FD
01
03
04
04
FC
F2
00
FF
FA
FC
01
03
09
0D
07
0A
FD
02
05
03
02
FE
01
FF
07
FE
01
02
01
01
FC
01
FE
01
06
FE
10
0F
09
FC
FD
06
0F
00
FE
05
F6
00
FB
FD
02
F9
FD
F9
FE
F8
FE
08
03
FC
FF
FF
07
0B
07
01
03
07
05
02
05
04
07
FE
FD
02
07
01
02
FF
07
07
02
02
04
05
FF
FC
00
0C
09
FA
FD
02
03
00
04
09
08
FA
FE
07
03
08
00
FF
FE
FC
02
03
05
00
FB
F9
FE
04
06
04
00
FC
08
01
FE
02
04
FE
FA
F7
02
01
FF
F9
FE
04
FA
EF
FE
FE
05
08
13
01
02
01
FA
01
05
06
FE
FD
00
FD
03
01
FA
F5
FE
FF
01
F9
FA
07
FF
FB
F5
F3
01
FB
FE
FD
FF
00
02
01
01
08
FF
FB
FA
FF
03
FE
FF
FD
02
FB
06
03
FF
F8
FF
00
F8
01
02
02
FF
FE
01
FC
FF
FD
01
FD
02
02
FD
FF
FF
FF
00
F8
FB
FC
F9
00
02
02
04
FA
00
02
FF
01
FD
03
00
FE
FE
FE
06
FE
01
FF
FE
FC
06
05
01
F3
F3
03
FB
01
05
05
FF
01
01
FC
07
FD
00
01
02
FF
FC
FC
04
01
F7
04
02
01
FF
FD
03
02
FE
FD
FF
08
03
FE
FF
03
00
02
FE
04
03
05
01
05
01
06
01
FE
FF
00
FB
02
FE
FB
03
00
FC
FC
02
03
04
05
03
FD
03
05
FE
03
FB
FE
05
FE
FB
FD
03
01
FE
FE
FD
02
03
01
FF
FD
02
02
06
00
03
03
01
06
FE
FD
FD
03
01
FD
FF
00
FF
07
FB
FC
FE
03
09
FD
00
02
01
02
04
FF
05
03
FE
03
01
04
05
F8
FF
03
08
0C
FE
FD
02
03
06
F9
FB
02
FE
FA
01
03
03
03
FD
01
FF
F9
FB
02
FD
FE
03
FD
FB
FF
00
00
02
00
01
00
00
08
03
04
FD
00
03
05
02
FE
FD
FD
F3
FA
FE
FD
07
03
FC
FE
02
03
01
01
00
01
FD
00
01
00
01
03
00
01
FC
02
03
03
FE
FD
07
07
01
02
F9
04
00
FB
01
FD
FF
00
FF
00
00
03
FF
FE
05
03
00
01
09
FF
FC
FB
FF
03
FA
FD
FA
01
05
FD
F9
FC
02
04
01
FF
03
00
00
01
00
00
02
FE
FF
FE
F9
FC
FD
06
FF
FD
01
04
05
04
FA
06
04
04
02
F9
06
FB
01
05
F7
F5
F9
01
02
FA
FC
FA
03
FF
01
01
FF
01
05
05
03
00
02
03
01
03
02
03
FE
01
FF
03
FE
FD
FE
FC
F8
02
02
03
05
FF
00
04
03
01
FF
04
FB
01
FE
FE
00
FF
00
00
F7
02
04
01
FE
FB
02
01
FE
FC
00
FC
01
00
FF
02
02
02
04
03
FF
03
02
FE
00
00
FF
00
00
01
F6
01
03
01
01
FA
01
02
01
02
04
00
FE
04
01
01
FF
FF
00
FD
03
0C
08
00
FA
F0
08
05
02
FE
FD
00
FF
01
04
FF
02
00
03
02
FF
02
04
03
02
04
FD
01
04
07
05
FA
FF
04
00
FA
FF
FE
02
FE
FD
00
FD
00
00
06
03
FC
FC
02
08
FB
FC
03
FF
FF
FD
02
04
06
FD
FC
02
05
FE
FF
FB
FE
FD
00
FE
FB
FB
01
05
09
FD
FE
00
02
03
FE
04
02
FE
01
06
FF
FE
FF
FE
02
FF
03
04
02
01
00
02
05
FF
02
FF
FF
01
FD
04
05
FD
FB
FE
01
03
02
02
FF
03
02
03
00
01
04
01
02
FD
FF
FF
04
FE
05
FF
FB
06
00
FE
00
FE
02
00
FF
FD
F9
FF
03
02
01
FD
FF
07
03
05
08
05
FC
FD
F8
FE
FF
FD
00
01
01
00
00
FF
01
01
04
FF
FF
FA
02
03
FC
00
03
01
04
FF
FE
FF
03
03
FD
F7
FE
05
FA
FD
00
03
01
FD
04
FF
05
FF
FE
FD
F6
01
02
FF
00
F7
F0
00
03
00
02
03
01
01
04
05
08
01
04
01
FD
FD
02
05
03
03
00
FD
F8
FF
FE
00
FF
FC
00
03
01
FD
FC
FE
02
FE
FA
03
00
FF
FC
FA
FF
FD
00
05
03
09
FF
00
FA
07
03
04
FD
F9
04
04
07
01
FE
06
05
02
01
00
05
06
00
FC
F5
00
06
11
FE
FC
03
08
04
FB
FF
FE
F4
FD
06
03
FA
02
02
07
02
00
FD
01
FB
FA
FA
FD
04
07
01
F5
02
FF
05
FB
FE
04
FF
FF
04
FC
03
00
FE
01
02
00
02
02
FD
04
07
02
FA
04
FF
00
FB
FE
F8
02
FF
03
01
FD
01
04
FD
01
04
FE
FD
FA
FB
00
FE
FE
00
06
0B
FC
03
03
01
FF
00
FF
00
FD
F9
02
04
04
01
FE
FE
03
05
FF
FF
00
02
04
07
06
FF
04
01
03
01
05
FE
01
00
FC
01
FF
03
FD
FE
02
00
03
02
00
F5
00
06
05
FE
FD
01
00
02
FE
01
FE
02
FA
FD
03
02
03
03
02
03
01
00
FC
00
FD
00
FD
FF
02
FE
02
00
00
09
01
02
FD
FC
FD
05
02
01
01
FF
FD
04
02
04
04
FD
FE
01
FF
FB
FD
FC
FE
00
FD
FD
FD
01
FD
FD
FB
FC
FC
01
01
FF
FE
01
03
01
02
03
FF
01
FC
FD
FC
FC
FB
FF
FB
FD
FC
FF
FD
00
FD
FD
FC
FC
01
FE
02
FC
02
FB
FF
FD
01
FB
FC
00
00
FC
02
FC
FD
FE
FC
00
00
02
FF
01
FE
FF
FC
01
FC
01
01
01
01
FB
00
FC
FF
FE
FF
FD
00
FE
02
FC
FC
00
FE
02
FD
FE
02
FE
FF
02
01
FE
FD
00
FD
01
FE
FE
00
FE
FD
FE
FC
FF
FE
FD
FE
FF
FC
FE
FD
00
00
FC
FD
00
01
00
FD
FB
00
FC
FF
02
02
FD
FE
FE
FC
00
01
FC
00
00
FF
02
FD
FF
FC
FB
02
00
02
FC
03
FC
FC
FE
04
03
FF
FE
FD
01
FE
00
FE
FF
01
FC
FC
FE
FF
00
FE
FD
01
FE
FD
02
00
FB
01
FF
FD
02
00
FF
FC
FF
00
FE
FE
00
01
FD
FD
00
FF
FF
02
FF
00
00
FB
FC
03
03
01
01
FC
FD
00
FB
FF
FF
FC
FE
FC
00
FD
FD
00
FC
00
03
FE
FD
FD
FD
FE
FC
FD
02
FC
01
FC
01
02
FC
00
01
FF
FF
FB
FC
FD
00
FB
FB
01
04
04
FD
FA
FB
FF
00
FF
FE
FD
FE
FF
FD
FC
FB
FE
00
01
FD
FF
00
00
01
01
00
FF
FC
FB
FF
FB
00
FD
FE
FE
00
FD
FB
00
00
01
FB
FC
FE
01
FF
FF
FD
01
FC
01
00
FD
FE
FE
FD
FF
FC
FB
FC
FB
00
00
FE
FD
FA
01
FC
FC
FE
FD
FF
FD
01
FF
FE
FD
FE
01
FF
F9
01
FC
FF
01
FD
00
FE
FF
00
00
FD
FD
FE
FE
FE
00
FB
01
FC
FC
FC
FF
00
FE
FA
FF
00
FD
FA
FF
FB
FE
01
FF
01
FF
FF
01
FD
FC
FE
FC
FE
FC
FD
00
01
FE
01
FD
FC
00
FF
01
FE
01
FE
FC
00
FC
FD
FD
01
FE
FF
FF
FD
FC
01
00
01
FF
FF
FD
01
FF
FF
FB
FF
FE
FD
FD
FB
01
02
FE
FF
FD
FF
FC
FA
FA
FF
FC
FF
FF
00
FF
02
03
FD
FF
FF
00
03
FD
FF
FB
FE
FE
FC
FB
FE
01
FE
FC
00
00
FE
FC
FE
FD
FE
FE
FC
01
01
FC
FC
00
01
02
00
FB
FF
04
FF
FF
FD
FE
FF
01
FD
FE
00
01
02
FE
FD
01
01
02
FD
FB
FD
FC
01
FF
FF
FF
FE
FD
FF
00
FE
02
FB
00
00
02
00
FE
00
FF
FD
FD
FC
FD
00
01
FC
FD
FD
FD
FF
FE
FE
FB
FF
01
01
00
00
FC
FE
FD
FE
FC
FD
FC
FF
FC
FD
