FE
03
FA
FF
00
01
F9
FD
FC
F8
F7
00
02
05
09
FB
FC
04
FA
03
06
04
FC
F9
06
FA
F9
00
0A
05
06
06
FF
04
03
01
02
04
FF
03
FB
FC
01
F9
05
FC
FE
FF
00
FF
FF
FA
F4
FC
00
FF
06
0D
FD
06
03
FD
05
05
05
FA
00
FC
FF
FD
01
FB
06
01
02
00
02
04
FB
03
00
FE
FC
00
FE
01
04
FF
F9
05
03
FC
02
00
00
03
05
FF
FE
06
FD
02
FD
06
FB
02
FB
FC
07
01
FB
FA
04
09
00
FD
FE
02
FC
FF
FC
05
04
03
FD
00
09
01
01
FA
FC
03
FB
05
04
05
00
04
00
02
FE
F9
FD
05
06
FD
FC
FF
FB
01
FA
06
05
03
05
03
FB
FB
05
FF
01
01
FA
07
02
FC
04
FE
01
FD
02
FD
03
02
04
FB
06
FF
02
08
FE
FF
03
07
FF
01
FE
04
08
FF
05
06
03
01
03
FA
06
0F
03
00
FE
05
03
03
FF
06
05
FB
FE
05
FB
01
F7
03
FE
01
01
00
01
06
FE
00
01
04
FF
F9
06
FD
FC
FD
06
00
05
01
01
FA
02
FB
FB
FD
FF
FD
02
FA
FA
03
FD
00
FB
FD
03
03
FD
FD
FF
02
FD
FA
FD
FD
02
FB
03
02
FE
FE
00
FE
03
02
FE
FA
FB
03
03
FD
FA
00
F8
03
FB
FE
FF
FC
FD
FE
00
05
02
04
03
FE
FB
FE
FD
04
FE
00
F9
F8
FE
02
02
FF
FB
01
FD
FF
FC
FD
03
00
F8
00
05
FD
FF
00
05
FD
FB
FE
02
FB
FE
FD
FC
FC
01
FC
F9
01
00
FA
00
01
F8
02
01
00
FE
04
FA
FD
01
FC
FB
FE
FE
05
05
FB
FA
02
01
01
FE
FD
FA
FD
06
03
FE
01
03
FF
08
FC
00
05
10
FA
01
09
01
05
FD
08
0A
03
FB
08
FD
FC
02
02
02
00
07
03
02
FA
FE
08
05
04
FE
00
F8
00
03
02
05
FE
FF
02
00
08
03
02
01
0A
08
F3
00
FC
08
03
FB
FF
02
FC
FB
01
FC
01
FF
01
FE
FB
01
02
FE
F7
05
03
FE
FC
FD
0B
05
00
00
05
FF
F8
06
FB
FE
00
FF
08
0B
FC
F6
07
06
10
0B
FC
FD
FD
FB
05
FF
FB
FA
03
05
02
FE
FA
01
07
F8
04
FE
09
07
04
F9
F9
05
03
02
FF
F8
FE
05
FE
FC
04
FC
00
F9
01
FB
FC
FC
FB
FA
FB
FD
04
03
FE
FD
03
03
FA
FF
00
02
FC
00
04
FE
FD
FD
FB
FA
04
F8
06
FD
FD
01
03
FF
F9
05
FB
FE
FD
00
03
06
00
00
FE
03
05
FB
01
02
FC
02
FA
FC
04
04
00
FF
03
03
FB
01
03
02
FC
FF
FF
FC
FA
F9
FF
FB
01
FB
F9
01
FA
FE
FF
01
F9
F9
FF
02
FC
FB
F9
02
FB
FC
02
03
05
01
FC
01
FF
FB
FC
FF
FB
FD
FA
01
06
FE
FD
FE
08
00
03
05
FB
FD
00
F4
07
FD
09
FD
FF
03
FE
F0
00
08
FD
04
FD
FE
FE
FB
FF
FB
01
FB
07
02
02
03
04
FC
FD
00
04
FB
05
FF
FD
FF
FF
02
FF
F9
FA
FD
F3
05
0A
05
05
02
00
FA
0B
03
01
05
07
03
FE
00
FE
0A
00
09
FC
06
08
F9
01
05
0A
FE
07
F8
09
FF
04
08
03
F9
01
03
FF
03
08
FB
08
FF
F9
03
F8
F9
04
FB
F7
07
0A
06
FD
FE
02
FC
FE
03
01
FF
01
09
F6
09
F8
06
00
FC
FA
05
01
02
FD
00
FB
01
01
02
FE
FB
FE
FE
FD
04
01
01
04
FF
02
FC
FB
00
03
FC
05
01
FE
02
FC
FF
04
FA
00
FA
FE
FA
03
FC
FE
FF
FB
FE
FC
04
02
FF
FA
02
02
FD
FA
FF
FD
FA
FB
00
03
FC
03
FB
00
FB
01
FF
00
FC
FD
05
FE
FB
00
03
FD
05
FC
FB
FF
00
FF
FF
FE
F9
FB
03
02
01
00
02
04
FF
FA
01
F9
FD
04
01
FF
FA
03
03
FC
F8
03
02
06
FD
02
04
00
FF
FD
05
FF
FF
FA
FD
FC
04
00
FD
04
04
03
F6
FE
00
F9
03
F9
0A
01
03
00
FF
07
FF
06
FB
02
FC
FC
FF
02
02
FE
02
FF
FD
FE
FC
01
FD
05
09
03
01
04
01
02
05
01
02
03
FF
06
FC
04
FA
FF
FF
F3
FF
FC
FA
06
03
F7
FC
03
FA
00
02
03
07
04
01
FE
0C
FF
00
FB
02
08
FE
FE
FE
03
00
03
05
02
01
FE
01
FF
05
00
06
01
02
04
F9
FC
07
02
0E
08
01
FA
FE
01
F8
FC
08
05
07
04
02
FA
03
06
FE
06
FD
08
0A
01
04
05
03
03
02
FE
FA
FE
FE
FE
01
01
04
01
01
FC
04
02
FE
02
FC
FA
FD
00
FB
06
03
06
FE
FA
00
FF
03
05
00
03
FD
F9
01
04
FC
FC
00
FA
03
FE
FD
00
FE
FF
FC
FD
01
FC
FE
01
01
01
FB
04
FF
03
FB
FC
FA
F9
04
FC
FD
FD
00
FD
00
01
00
FC
FF
02
FB
00
00
05
05
02
00
00
01
FB
FB
FA
03
FF
02
01
FA
FC
FA
FF
FA
FF
02
FC
02
00
FA
04
03
FD
FF
00
FF
00
FC
FD
FB
FD
FD
FB
01
03
FE
FC
FE
01
FE
FE
07
FC
FF
07
FC
08
FC
01
F8
04
04
04
04
02
01
FC
00
04
01
01
07
FA
F8
FD
03
06
02
07
01
FC
02
FA
05
09
01
06
03
FF
05
02
FB
FA
04
00
FF
FA
02
FF
FD
FD
F8
02
04
01
FA
05
01
07
FB
02
01
02
07
FF
03
00
02
02
F8
FD
00
02
06
F8
00
FD
01
04
05
0A
FA
06
05
04
FE
FF
F6
FC
07
FC
00
FB
FC
FE
02
FB
05
FF
09
03
FC
FB
FD
05
FE
08
03
FD
03
00
06
03
03
03
F7
01
01
05
04
04
0E
FC
FD
FF
FA
FF
FC
01
00
08
02
FB
FD
02
09
03
06
FF
FD
02
F9
06
02
07
FE
00
09
00
FD
FB
04
08
FC
FB
05
00
08
01
02
FF
05
FB
FF
F8
09
05
FD
05
F7
FB
06
07
F8
0A
FC
FD
F9
FC
01
FE
05
FB
F9
00
FE
FA
00
05
FA
FF
FD
F5
FE
02
FA
F4
02
FA
F6
06
06
07
06
FE
04
FE
04
03
FF
00
FF
FA
FD
F9
02
03
04
FF
FE
03
F1
05
07
FF
05
FC
03
04
FC
F8
01
FE
F7
FE
08
02
02
02
FF
02
06
01
FC
04
03
01
05
02
F9
06
02
FD
04
FD
01
F5
FF
02
00
FD
09
FD
FA
FF
FA
01
02
06
FC
04
07
FC
09
05
01
05
05
08
FB
FE
FD
0A
FD
FF
03
F6
FE
F9
FF
FE
FF
FA
07
FD
04
FA
FD
FE
00
05
FC
FD
FE
03
02
FC
01
F7
FB
03
00
FC
FC
FB
FB
08
FE
06
04
04
FB
F9
06
FE
FE
F6
F4
FC
FF
FF
04
03
FB
FF
00
FE
06
08
04
FF
08
FB
F9
FF
03
07
07
07
09
07
02
FC
03
05
07
00
00
00
02
01
04
FB
00
06
04
FC
FB
FC
FF
FB
FE
07
08
FC
01
06
FE
FA
FF
05
FD
02
FB
FF
00
F8
FD
04
FC
FE
08
FE
02
FE
03
05
05
04
FC
FA
FE
FB
00
08
FF
0B
FC
07
FC
00
FC
FF
FF
02
FF
01
FA
F9
01
00
02
FC
07
04
FB
FC
F8
01
01
FE
FD
00
01
01
02
FC
00
01
00
FF
07
08
01
FC
05
05
0B
04
00
09
00
05
05
F8
02
01
05
03
02
06
FB
00
FF
FB
FC
FA
07
FD
FE
02
FC
00
FE
04
06
01
02
FD
07
00
F4
FE
FF
01
01
03
05
F7
FD
04
06
07
08
FF
03
06
06
FD
FA
00
03
FD
FD
FE
FF
F7
FD
05
01
01
01
00
00
00
FB
FB
04
02
04
05
03
04
F6
F9
FE
05
0A
04
02
03
F6
03
FF
F7
FA
05
05
FF
00
00
FA
FA
01
FD
FC
06
F3
01
06
FC
03
09
FE
02
02
02
01
02
02
05
02
FC
FA
03
07
01
05
01
00
FB
FF
07
0F
06
08
09
00
F9
02
01
05
01
07
FC
01
FD
FF
F9
F9
04
FB
FE
03
00
FC
06
04
FC
FE
00
F8
03
00
FA
FC
03
06
03
0A
FC
FD
09
FB
03
03
02
00
FF
09
00
FB
04
0A
00
03
FB
FF
00
01
04
FD
F9
05
FC
FC
03
F9
FB
03
00
00
01
FC
00
FA
FD
FA
FA
FF
05
03
06
01
00
00
05
02
FD
01
08
00
01
09
F9
06
04
08
02
FF
FB
FB
0E
FE
01
FE
03
05
FD
06
04
FD
FD
FE
07
04
07
FF
01
01
FB
FF
FF
0E
FF
FF
FD
F9
03
F8
FB
0C
06
01
FD
FC
FD
04
05
00
FE
FB
06
02
06
01
01
00
F8
00
FF
0C
FE
00
FB
03
02
05
FF
FB
05
04
FF
FD
03
02
FA
FE
FF
04
FE
04
00
FD
FD
FE
07
09
FF
FF
03
02
FD
07
FB
00
FD
04
08
04
FD
01
FC
04
00
0A
03
04
0A
02
FE
0A
06
FF
00
03
FD
FD
00
FC
09
06
FC
08
FC
03
01
04
FC
00
FE
04
FE
04
03
F9
FD
00
03
01
06
FA
04
FF
F9
FD
F5
FF
07
01
01
FE
01
FB
01
FD
01
06
07
FF
FA
FD
FF
01
06
FB
08
01
03
FE
04
FE
00
01
03
FE
06
05
FC
06
FA
F9
00
FB
FE
FD
01
04
05
FE
04
02
FA
06
F8
FE
04
02
03
FE
FD
02
01
02
06
FC
03
FE
FD
06
03
00
01
FB
00
FC
01
FF
05
00
FF
FE
FB
07
FE
FE
F9
03
FA
08
FF
FA
05
02
FE
FC
FE
FB
F8
04
FC
06
FF
FC
00
F9
F9
FB
FB
02
05
FB
06
03
04
06
FC
00
FE
FC
01
09
FE
01
FF
09
00
06
FE
FB
04
06
02
08
05
00
03
02
05
02
06
02
02
05
FE
03
04
07
FA
FD
04
FF
04
02
01
00
FE
02
02
05
00
14
FD
04
FD
06
00
06
FC
FF
04
FF
07
00
02
FA
01
00
01
F9
05
03
FE
FF
FA
02
04
04
05
FA
06
FC
05
00
03
FF
FF
FE
06
06
FC
01
09
FE
02
07
04
00
FC
F9
03
FD
01
00
FD
00
FE
FA
05
FD
00
FD
F9
09
FA
00
04
01
FD
05
02
FB
00
FA
F8
FC
00
00
FC
02
0A
FA
03
F9
FF
07
FB
FE
FF
06
05
FB
FC
06
04
FE
06
FC
FE
02
04
01
FC
FC
FF
04
FB
04
FB
FA
05
F8
07
03
FE
02
06
01
00
05
FC
01
00
FB
FE
01
03
FD
F8
02
00
02
03
FB
09
03
00
05
FD
FC
03
FF
03
04
05
04
FA
08
FA
01
FD
02
05
03
FF
01
02
04
02
07
FD
02
02
FF
FE
03
03
FF
02
06
FC
FD
FD
FD
FF
02
FC
FF
F8
05
05
01
F9
FA
01
03
03
03
FF
0D
06
FC
FE
02
FB
04
F9
04
FC
04
07
05
FD
05
02
02
02
06
02
FE
00
06
06
09
09
02
04
F9
FE
FD
07
05
01
02
FC
FB
FB
02
FA
FC
02
F9
01
00
FB
06
00
FD
06
07
FB
F0
FD
03
01
F9
FB
03
08
01
FE
FD
FC
FF
FA
FD
00
FE
F9
07
01
FD
00
07
05
FF
01
02
03
03
FA
03
FD
FD
FF
04
06
FB
FC
FC
FC
FC
FE
FA
02
02
05
FB
FA
FF
06
FD
06
0A
FA
01
01
01
07
04
FD
02
FF
FE
01
06
03
00
04
F8
07
FE
02
FF
0B
02
FF
00
FE
FA
F6
02
00
FC
00
FA
01
08
FF
FE
01
06
09
F5
FA
06
FF
FD
FF
02
03
FF
02
FE
04
05
01
FD
06
FA
04
FB
02
08
06
FF
FC
FD
01
04
03
00
04
03
08
0B
02
08
FB
02
FD
FA
02
FF
FB
06
03
02
FE
01
05
F8
03
09
05
FB
F9
03
00
05
01
02
FE
FD
FE
04
FC
FE
07
F4
FF
04
01
06
FE
02
FC
FF
06
02
07
F8
F8
02
F9
FD
FB
04
06
05
05
FA
01
07
FB
FF
FA
F6
03
08
03
FB
0D
FD
09
00
FC
05
03
07
F6
04
F9
FC
FD
FD
04
09
FB
07
FE
FE
06
09
FC
05
FC
05
FF
FD
FE
02
03
00
02
04
FE
06
F8
02
FE
09
FE
05
FC
FA
02
FD
F8
08
01
04
04
05
F9
00
06
FC
FD
00
FB
00
01
04
06
00
00
06
03
F9
02
FC
05
00
03
00
00
05
FA
FC
FE
03
FA
06
FC
FF
01
02
06
03
04
03
F3
05
01
FF
F9
FC
FD
06
F9
04
00
03
FC
FE
02
FB
F7
03
05
05
05
04
F9
FA
FA
06
FE
03
03
02
0A
02
01
08
F9
06
00
FC
FC
07
03
04
02
03
F9
FE
06
F7
06
FF
01
09
01
00
06
FF
01
FD
04
07
06
07
04
03
FB
08
FC
FB
01
FC
06
00
01
FD
04
00
FB
03
02
F9
00
FB
FC
FB
FF
FF
0E
07
00
FC
06
FD
FF
00
06
06
FD
02
FA
FD
00
06
00
FA
02
02
02
FC
FF
01
FB
FD
05
FB
03
FD
F9
03
F8
00
01
FA
00
05
03
FA
00
FE
05
04
00
FD
03
FE
03
07
09
FB
02
FD
02
0D
01
FB
01
01
0C
FB
FC
02
03
06
0E
00
01
FF
FC
02
FD
09
FF
02
02
04
02
05
09
03
04
02
01
FD
01
FB
05
04
01
05
FC
F6
FE
01
FB
05
01
FC
05
08
FC
05
00
02
00
FD
05
03
FA
06
05
04
04
FB
03
FF
F9
06
F9
F6
02
FD
05
02
00
04
02
FD
F8
04
02
FC
00
F8
02
FC
FA
FF
FA
F7
FD
0B
08
FE
01
02
FA
04
FC
02
01
FC
05
00
FF
04
05
03
FF
F4
03
06
06
F9
FF
FD
01
F7
F6
03
02
07
02
FC
05
0C
FF
04
02
FB
01
01
FC
00
03
01
F9
03
09
FC
0A
FF
FF
00
F7
FC
F7
FD
FC
03
04
FF
FA
FA
08
04
09
FF
FE
06
02
FA
00
03
03
FD
FB
06
FF
00
05
02
01
FD
02
FA
F9
FF
F9
08
FF
03
01
FF
F4
0B
FB
02
05
07
FD
FE
03
02
06
00
F7
FE
FF
04
FF
04
FA
05
FD
01
03
FB
FC
03
05
01
03
F9
03
06
03
F7
01
08
03
FB
FA
05
03
03
00
FE
FB
02
FE
02
07
FC
06
FA
05
02
FA
FD
FE
02
04
FD
01
06
04
09
FD
FA
FC
FE
02
FF
FD
05
FD
03
02
FB
FC
FA
FC
FC
FE
FB
04
01
FF
F9
04
0A
0A
00
04
FF
F6
02
00
FC
F7
06
06
F8
FB
04
06
01
03
FB
05
00
05
04
06
FF
06
05
F9
FC
04
F7
00
03
FC
FD
00
06
0E
07
02
00
07
F8
00
FE
FE
FC
FB
05
FD
00
03
07
04
FD
00
FE
00
02
FE
F7
FC
06
03
FF
03
F9
FB
03
02
02
00
FC
08
FC
FF
FF
FB
07
00
09
FF
05
FA
FE
02
09
01
FA
FF
01
01
09
01
02
FA
04
07
FC
00
FD
08
05
01
FD
04
02
FE
06
FE
01
FC
03
08
04
04
00
FF
FD
FD
04
0A
F7
01
03
02
02
03
F7
FD
02
FA
01
FB
FF
02
FC
FA
07
04
02
02
01
FE
0A
03
00
05
FD
03
F8
04
FF
FC
0A
FF
03
00
04
FB
02
05
01
FA
FE
FE
05
01
06
02
00
03
07
00
07
F8
FF
04
07
04
00
FE
FC
04
FA
06
07
04
FB
FA
05
FE
02
05
F9
02
00
F6
04
03
FD
04
00
F5
FF
FF
FC
02
FC
02
02
02
FC
FD
FB
05
F9
02
06
02
FC
05
05
07
04
FF
03
FB
02
F9
04
F9
00
05
04
03
02
00
01
02
04
06
0C
05
02
FE
05
FC
06
00
0A
FE
FC
02
03
00
FF
FC
FD
FD
05
FD
0B
FE
02
04
FA
02
00
FC
F3
FB
03
FC
F3
FC
04
FC
07
FD
02
FA
06
00
03
03
01
FB
FB
06
FE
FD
0C
FC
00
FE
01
05
06
00
00
02
FB
05
00
00
FB
FA
01
05
00
05
FB
FB
00
0B
F6
05
03
01
07
07
09
05
FC
FA
FE
04
FF
FD
FC
03
FB
08
F5
FA
FE
01
FA
FB
FE
FF
FC
FD
05
01
F8
02
02
F7
08
02
04
08
00
00
00
03
03
02
FE
07
F4
04
FA
02
FE
FB
00
08
FE
FE
05
03
00
02
FE
02
06
00
FE
FC
F7
FE
F9
05
FA
04
FF
FE
01
00
FD
03
FA
01
03
FB
FD
FE
07
FD
FB
FE
02
FC
FD
01
FC
00
FD
03
FF
03
FF
0B
08
04
FD
05
03
04
08
06
FD
FE
FA
08
02
FF
FC
FB
0A
FF
06
F6
FA
01
04
03
04
01
FE
FF
02
FE
02
00
03
06
09
00
FB
02
01
FD
06
FE
F6
06
03
03
03
F3
07
04
FE
FC
00
05
FF
07
06
04
01
F3
F7
04
00
FC
03
F6
F7
07
03
02
06
02
FB
06
01
00
04
FF
FC
01
05
01
04
0B
00
FE
00
FB
03
FE
04
00
F9
FF
FB
FF
06
F9
02
00
06
04
00
01
FB
02
02
FD
00
FA
05
00
FE
03
01
01
FD
FB
04
FD
FD
01
01
FE
00
02
FD
FD
FE
F9
00
FF
FF
FC
FF
FF
FA
FC
04
FD
05
FB
FC
FF
02
FC
02
05
06
FD
04
04
03
00
FA
01
FF
FC
04
FB
FF
00
02
FB
03
FA
05
03
FB
FC
02
FD
FB
04
FB
04
FA
05
FF
02
FC
F9
01
02
04
05
FC
F9
02
04
FC
FC
FC
02
FA
05
FD
05
04
F8
00
F9
FC
FA
FF
FD
02
FE
FD
08
02
03
00
02
ED
03
FF
FF
F4
FD
FE
00
07
FC
03
01
F9
FD
00
0A
FD
08
FE
FE
F9
FD
06
00
06
02
08
05
FF
05
FE
FC
01
FD
FD
FD
FC
04
FD
FE
FE
FA
04
00
FD
FB
F8
06
09
FD
02
06
03
05
02
02
0B
01
07
FC
06
00
FF
08
FE
00
02
0D
FC
00
04
02
02
03
02
FF
07
FE
03
F6
03
04
02
01
00
08
07
07
FF
06
03
FE
F7
07
00
FF
05
04
05
02
FF
01
00
01
02
02
05
FF
08
FB
07
FE
F9
04
FC
06
FC
07
FB
03
0A
FE
00
FF
0F
09
FB
FF
00
FC
FE
02
00
02
FD
FF
FC
01
0B
00
FD
FF
FB
FB
FB
FB
FB
FF
00
FC
03
F9
FC
FE
05
FF
06
06
F9
05
00
07
03
FE
01
03
06
01
FD
03
F7
FF
F9
02
FB
03
FE
07
FF
07
F9
F9
09
FD
04
05
FE
01
0B
FE
02
00
FA
08
FE
FD
FF
FC
04
FF
04
F7
FE
FB
00
01
03
F6
0C
03
FE
07
11
03
FB
02
FE
03
FF
FD
05
FF
FC
FB
FE
00
07
F8
01
01
07
01
FC
00
04
01
03
00
05
FD
F8
FF
FB
03
0E
FB
09
09
FD
F9
02
09
08
00
03
F8
02
06
0A
00
FD
FD
FD
FC
FB
06
FB
05
02
FC
00
FA
FF
06
01
05
F9
04
F7
01
05
01
FC
08
FF
FD
00
01
04
07
02
03
06
FD
03
03
05
FB
08
0B
FC
FF
00
FE
07
00
FB
FC
FD
03
FC
06
FD
00
02
06
FE
01
FC
00
F9
FC
03
06
FB
FD
FB
05
05
FF
04
FA
FC
01
02
FA
03
06
02
FB
09
04
F8
FE
01
06
02
04
08
09
FF
01
07
02
0B
04
01
06
FD
FF
FD
FB
FA
05
F8
FD
00
F4
F7
01
FF
FF
02
FF
05
0A
FE
FC
00
03
06
FE
00
07
01
02
FE
02
06
FE
08
0D
FE
04
04
01
05
FE
07
05
FC
07
FB
FC
0A
0A
08
FF
FB
09
F8
FC
06
FB
00
FC
F9
FC
00
FA
05
03
F4
07
F7
FB
FC
02
01
FF
00
EF
01
F9
05
FC
FF
FD
FF
06
FE
0D
08
FB
08
FC
06
02
01
FE
03
F5
F5
02
04
08
01
FE
07
08
F6
00
03
00
02
06
FF
03
FE
FD
FE
02
FD
00
FA
FC
FA
07
02
FF
0F
FE
04
FE
FE
06
FF
F8
FD
FE
01
04
FB
06
03
F7
05
00
FB
04
07
FB
FB
07
08
02
06
FD
06
01
05
02
01
02
FB
05
06
00
08
02
FF
03
FE
F6
03
FC
08
FD
06
FC
F7
FD
03
08
05
04
05
07
02
01
01
FE
FE
05
FE
00
01
F8
0B
08
03
07
04
FA
01
08
03
FA
09
0D
FD
FC
04
FD
FF
09
FF
FE
03
FF
FF
00
0B
07
02
F9
FD
04
04
06
08
FE
04
FF
FC
FF
06
FF
03
FE
FE
FD
05
FF
FD
FA
FE
02
0A
00
0B
FF
01
01
FE
FB
07
07
FA
03
02
FF
01
05
0A
00
FB
FA
03
FE
02
04
FD
03
FE
01
02
00
03
FD
F7
FC
FF
F9
FC
00
07
FB
0A
02
02
F8
02
FE
00
03
00
FA
02
FA
0A
05
01
07
00
00
FC
00
04
00
FE
FE
07
FF
04
01
07
FB
05
05
02
FA
FF
0C
FA
FD
F9
00
02
FA
05
F9
FA
00
03
00
0A
09
F8
04
02
07
03
02
03
06
05
00
FD
02
FC
00
FF
FA
FC
FC
FE
FD
FC
02
02
07
01
02
FC
0A
FD
02
F8
03
F9
FD
01
FB
F9
01
F8
00
FD
FB
FE
03
00
0A
02
04
00
00
0A
FB
00
00
FF
06
FC
06
07
05
03
FF
01
08
05
07
FC
00
F7
FF
FC
01
FE
01
07
FF
06
01
F7
0C
FF
08
01
FD
FC
07
FF
FF
05
07
FC
FB
08
FB
07
0D
F9
FD
FE
09
F9
FD
04
01
06
F6
FD
01
04
05
00
04
01
09
00
00
F8
FA
04
02
02
04
00
F7
F8
FC
F7
FD
FD
05
FD
08
05
04
FD
02
FD
05
FE
FF
01
01
07
FC
FA
FB
04
FD
04
FD
FE
02
F8
03
01
FE
06
FA
05
01
FD
FF
02
FF
01
05
F7
02
01
01
02
FC
FC
03
04
FA
00
03
01
FE
00
FE
FB
04
04
F9
04
FC
FE
FA
F9
FD
02
02
03
FF
F9
01
FB
FD
FA
FE
02
07
02
01
04
FC
00
03
FC
FA
FD
05
FD
01
00
00
F9
FC
05
F7
FC
07
FB
04
FE
FC
FC
FB
FE
FD
05
FC
FA
FA
04
FB
FD
FD
04
FB
FF
00
04
02
FE
F9
F9
FF
F8
FE
02
06
F9
FE
FB
00
02
FD
FD
01
00
FA
FF
01
04
03
00
FF
FB
05
00
FF
04
09
05
FD
03
03
FD
03
01
04
0B
FA
FD
04
00
FF
01
03
04
FE
F6
FD
FB
FB
04
08
00
02
00
FF
02
03
04
01
FD
FE
04
00
01
04
F8
FE
05
0B
04
00
F6
08
FB
F5
FD
FB
04
FA
F7
01
FE
00
FD
05
FD
02
FE
06
F8
00
FE
07
03
F5
FF
05
FF
FA
FE
05
FD
03
07
FD
FD
FA
01
FD
FF
03
08
07
03
FF
FA
FB
FF
05
02
04
03
06
FB
04
F8
01
05
03
FC
01
FA
01
00
FB
05
00
FD
07
FF
03
05
FD
0E
FE
FD
FF
FD
02
FD
FA
00
00
03
FC
FE
FF
FD
FB
FF
05
01
FB
04
FE
F9
06
06
FE
FD
03
07
05
F9
F8
02
02
05
07
06
07
FD
FF
FF
F6
FB
F6
02
F4
06
02
02
FA
01
FF
FA
0A
FF
06
05
07
03
08
F9
04
06
FE
FC
02
FC
04
09
04
FE
0A
00
03
FA
00
00
FA
08
05
06
FF
FB
FD
06
01
FD
04
01
FC
FC
03
10
07
00
FA
04
04
04
FC
07
05
08
FC
FD
FC
FE
F6
06
FB
06
FD
04
FD
02
00
FB
0A
03
05
F6
05
04
04
FF
01
05
03
FD
FE
04
06
04
01
04
04
FE
F9
02
FD
04
02
04
FC
05
00
F9
00
FC
FF
06
06
03
04
02
08
FA
FB
00
FE
02
09
FD
07
03
02
FF
04
FB
02
00
FF
07
FC
FE
FF
08
02
07
05
03
04
FF
06
02
04
FC
02
FA
01
FF
05
FE
07
05
09
02
05
05
FC
F8
03
FE
00
FA
04
03
FD
FE
F9
03
03
F9
FC
04
FB
FD
02
06
06
07
FC
FB
05
FD
FC
FA
03
FE
02
05
00
01
FF
01
04
06
FF
01
05
FA
FE
05
FD
04
FB
01
03
FB
FC
00
FE
05
03
FA
FD
03
FC
03
FA
FA
03
FC
FA
FF
04
FB
FB
FB
05
05
FF
03
01
03
00
01
01
05
03
FE
03
FB
FC
FE
01
03
FC
FE
04
04
01
FE
00
FC
FD
00
FF
01
FD
FB
05
FA
00
FC
FE
FD
FE
FE
03
FE
FD
00
00
FE
04
FF
04
FA
02
FE
FD
01
FB
FD
FE
01
FD
FC
FA
FA
FC
FD
FF
02
FC
FD
05
FE
FB
FF
00
04
FD
04
03
FA
FB
02
00
FC
FA
FB
FF
FF
FB
04
03
FE
01
FB
FD
FE
FE
FD
FD
FC
FD
FB
02
00
F9
00
FC
00
FB
01
FC
FC
FE
F9
FF
02
FA
05
FD
FE
F7
FD
04
FD
FD
FC
00
FD
FC
03
FF
01
FF
FF
04
FF
F8
FD
03
FF
FD
FF
FA
01
01
F7
01
00
01
01
FF
FD
05
FC
05
04
02
F9
04
00
FB
07
04
FD
04
FD
FF
FF
FA
FF
FD
00
02
03
00
FA
02
FD
05
FC
FC
FE
01
00
02
00
FC
FF
02
F9
F9
FA
FF
FE
FA
02
05
FD
F8
FD
FD
00
F6
02
01
FB
00
05
FA
01
04
05
00
00
04
FA
05
0A
FD
06
02
F9
04
02
02
01
F8
FF
02
03
F9
00
FF
0A
02
FA
03
04
FD
01
FC
02
05
03
04
FA
FB
FE
08
03
00
02
04
02
0C
F9
03
07
01
08
F4
02
04
FF
02
04
FD
01
FE
00
01
07
03
FD
03
FA
FB
04
02
04
F4
04
05
05
FF
FE
FE
06
06
01
00
03
07
FD
FA
02
F9
05
00
04
03
FA
FD
FE
04
06
FE
07
05
FF
03
03
06
01
FA
03
FC
06
03
02
03
F9
04
FC
07
09
FF
FD
FF
FF
02
00
FC
F7
05
05
02
00
00
FE
07
08
F7
FF
07
05
06
FB
09
FF
FC
03
FC
02
02
08
FF
07
08
00
FF
02
FF
06
00
F9
FE
FE
FF
FE
FC
00
FE
FF
06
FE
03
04
06
01
FD
01
01
02
06
FF
06
01
FC
01
03
00
FD
08
05
05
06
F8
FE
05
09
FE
FF
04
05
06
06
00
FD
01
06
08
FD
FE
00
FA
0A
FF
04
09
FE
01
FC
FF
06
FE
02
03
FC
FB
FB
01
00
02
03
FC
00
FE
00
FE
08
FC
FB
04
FE
01
01
FE
05
FB
01
04
FF
0E
05
01
09
FF
01
01
F7
F9
0C
FF
F9
FF
F8
08
FF
FC
FD
F9
FB
FF
FE
F8
08
FD
FC
08
FF
04
06
06
04
06
05
FC
FD
0A
04
07
04
01
F8
01
F7
08
F9
0C
04
04
01
FC
00
00
00
05
FB
FC
FA
01
FD
FF
FA
FF
00
05
01
FC
00
03
09
FF
F7
05
F7
FF
01
01
FF
02
09
03
08
03
FE
09
FA
FB
00
FA
08
00
FB
02
02
06
FD
04
07
FF
03
02
FF
0A
06
FB
04
04
01
00
01
07
08
FF
01
00
03
00
FB
F9
02
05
05
FF
07
0C
06
FE
F9
F9
00
00
08
01
FC
F8
FB
FB
07
FF
02
03
03
FC
01
FF
04
01
FB
FD
02
02
FE
04
01
01
04
FD
05
FA
FF
01
08
02
07
01
FD
FE
02
FB
05
FD
F8
05
04
05
FD
FB
04
02
0A
FD
FC
02
06
02
FF
FF
FE
FE
06
04
FE
03
F8
01
05
03
07
FF
0D
FC
FD
06
F9
FB
00
F4
02
09
FB
FD
F6
05
02
03
03
07
04
08
05
05
05
01
FC
FE
FC
03
FF
08
01
04
FE
FC
FB
02
01
FF
08
FA
FE
08
00
04
09
F5
05
FA
FB
05
FF
FA
05
FF
07
03
02
00
F9
04
01
FD
FF
FC
05
09
FF
01
04
06
00
04
05
F6
FF
FB
04
00
FF
03
02
00
00
F5
00
04
04
03
FF
00
FB
FD
03
00
0B
FC
03
FC
06
FF
03
FB
FC
0B
05
F6
FE
F9
FD
01
04
FD
05
05
0B
FC
FD
FF
FE
01
FD
00
01
F7
FC
08
0E
01
FA
04
00
FB
04
02
FF
01
01
01
00
03
FE
FC
FC
05
FB
00
00
06
FC
FB
F5
03
00
01
FE
05
FB
02
0A
FF
FC
01
01
01
0B
FA
FE
FC
FF
FD
0A
03
05
05
F9
02
03
FE
02
F8
FF
07
01
FC
FF
FF
02
FE
0A
02
FD
05
07
FB
FB
00
06
08
00
09
06
04
FF
F9
FE
09
03
09
01
FE
02
F6
F9
03
06
00
02
FE
07
07
FB
00
01
FA
04
FD
01
F8
F7
09
06
FA
F3
FF
01
F9
00
03
03
01
07
02
FE
01
00
01
08
FD
01
07
08
00
FC
F9
FD
01
07
09
00
05
04
FE
00
06
02
FE
04
03
06
FD
FD
02
FE
08
FD
08
FA
FD
04
07
FF
05
FA
FB
01
0B
03
04
04
F6
08
FE
06
08
03
FE
F9
02
01
08
03
08
04
FA
F9
F8
05
FD
01
01
04
07
06
05
FF
FC
FF
04
07
F7
00
01
0B
01
09
02
07
02
FF
FD
09
01
05
04
F6
01
05
FD
00
07
FC
FF
06
FC
FC
0B
08
FC
F8
FF
FF
01
FB
FB
08
00
02
F8
01
F9
05
FD
F8
01
FD
FF
FC
FD
06
09
03
FE
FD
F2
FC
08
06
03
02
01
F9
00
FD
FE
04
FC
02
04
03
02
09
05
FF
07
02
F6
07
FC
00
09
05
F8
FE
FC
FA
FC
04
01
FD
FE
01
03
05
03
04
09
FF
00
05
00
02
F6
02
FF
06
FD
02
03
FF
04
FF
FF
FD
FF
FF
FC
FB
06
FD
03
07
FB
FC
07
FD
00
F9
FB
04
FD
05
04
00
02
FF
FC
05
FC
F7
FE
06
00
00
FB
FE
05
FA
03
00
03
FE
06
08
05
FF
03
FE
03
FB
05
01
FD
02
FE
04
FA
FC
00
06
F9
FD
06
03
00
FE
05
00
FD
01
03
07
04
02
FD
FE
02
FA
05
FD
04
03
04
06
08
02
F9
05
01
FB
FE
04
03
FB
02
FB
FD
01
00
08
FA
02
06
00
07
07
07
01
02
FF
03
04
06
06
FD
FA
FB
00
08
05
FF
00
FA
00
03
FA
FB
04
06
02
FC
02
FE
00
FB
06
08
0A
01
09
F6
FF
05
FF
00
00
FE
FF
04
FC
FC
FC
01
03
0A
00
05
00
03
01
F7
06
03
FB
00
07
FD
FB
00
FD
F8
01
FD
03
00
03
02
F3
03
03
06
06
F9
FE
F7
00
00
09
06
02
FD
02
F6
00
FE
FE
05
04
02
05
05
00
01
08
F8
06
F7
03
FB
04
02
01
0A
01
05
FF
F8
FD
06
FD
FA
08
03
04
FA
FD
08
FE
02
04
00
01
FF
00
02
01
F9
FF
03
01
FA
FE
FA
00
06
F9
FE
FE
06
01
07
06
03
FD
02
FE
05
F4
06
07
00
02
FE
03
FB
FD
FC
01
02
05
08
05
FF
FF
06
FA
0C
FF
02
FE
FD
FD
03
07
04
00
F8
01
01
FA
FE
FF
FE
FB
FB
04
FA
03
FB
03
F8
01
FC
03
02
00
08
00
03
09
00
FD
00
FE
05
FA
FB
00
05
02
05
FE
06
03
04
05
F9
FE
FB
FD
05
03
03
01
03
FB
FE
03
04
FA
01
FA
04
FC
02
FF
FB
00
FF
FD
FA
04
FB
04
FB
FE
04
FB
02
04
FD
FC
02
FC
FA
03
00
01
02
F9
04
01
00
05
F9
FE
FD
02
03
03
03
FF
FC
01
FC
FF
05
FD
01
FF
03
03
FE
FB
02
00
00
06
FA
FE
FC
F9
06
00
FE
03
02
FD
FC
04
FC
FD
03
01
FA
FC
FF
FA
FD
FE
02
FD
FF
FB
FB
FC
FA
01
01
01
00
FC
02
00
FB
05
03
03
FD
FB
FC
FB
00
FD
FB
05
01
04
03
FC
02
FC
F9
05
06
03
0B
07
04
0E
0A
01
00
00
FD
01
03
04
FB
03
08
FD
01
00
04
02
01
FE
FD
04
FD
FD
FB
FD
FA
05
FD
05
03
FA
FD
FA
01
FE
FA
03
F9
0A
FE
FB
FE
04
06
FF
FB
07
FC
04
00
04
06
03
00
FC
0D
FA
FA
00
01
FE
05
FD
05
0B
FD
11
03
02
FF
FF
08
FF
08
F9
01
07
06
06
04
00
03
05
05
0D
09
00
FF
FD
05
FB
FB
FD
FA
04
FA
05
03
02
FF
01
FF
FA
06
FC
FE
03
FE
02
FA
FE
04
04
F7
05
01
F9
0C
FE
05
02
08
F5
04
08
F9
03
F7
00
01
03
09
FB
F9
00
09
04
04
05
FD
03
FB
FC
FF
02
00
01
03
02
F9
FD
FD
06
FB
0A
FC
08
FF
05
FC
FF
04
06
05
07
01
02
FE
03
06
05
F8
0D
FA
00
07
F7
05
FF
FE
02
0A
FA
FC
0A
04
09
FF
05
06
FC
00
FE
F6
F5
F6
06
FB
09
08
01
09
00
04
09
0B
07
F9
FA
FD
03
03
F7
0B
FE
FA
00
FF
04
04
02
01
FA
FC
03
04
00
FA
04
FB
00
05
02
03
FE
FB
02
FC
00
06
FF
FB
FD
04
04
FF
05
08
06
03
01
06
FC
00
FD
03
05
FF
06
06
FD
F9
FD
FE
02
02
F9
03
FD
02
FC
FF
FC
04
FA
FF
03
08
00
F7
09
F7
FF
05
07
F8
04
FC
05
FF
F6
04
FD
09
FF
03
FB
08
FB
08
03
03
FC
04
FE
FE
0B
03
FC
00
FC
F8
FF
00
FD
03
02
04
F3
01
03
F9
FE
FF
FC
01
07
04
04
02
05
04
FC
F6
FE
06
FD
04
FD
04
05
FB
08
FE
04
FD
FD
FA
02
FF
F9
FA
00
00
FA
05
FD
02
F9
F9
FA
02
FD
04
00
FD
FC
F9
01
FB
FE
03
03
01
04
03
F9
FB
F7
FB
F8
F6
01
04
FF
03
03
FB
F8
03
02
02
00
FE
FF
00
FE
02
00
01
01
01
02
FE
FC
03
FA
05
05
01
F8
F8
01
FB
00
FD
FF
00
03
05
FE
03
FB
05
02
FF
00
FC
FE
FD
03
F8
08
FE
02
FF
FC
FA
05
FC
FA
F8
F7
01
FA
FF
F9
00
FE
FB
F9
FD
04
FC
FB
02
FD
01
FA
FD
04
FC
FD
FD
03
00
01
FA
00
FC
FD
FE
00
01
01
FB
03
F6
03
00
05
FE
04
02
00
FC
0B
03
07
FE
09
06
FE
FD
FB
05
01
04
06
08
FC
02
00
FB
05
08
03
FD
FF
FC
FF
04
FB
04
F8
01
05
04
FE
F9
0B
FA
05
07
04
FD
0E
02
FE
07
07
FA
01
07
02
08
07
06
01
08
0E
F7
FB
00
00
FF
00
FC
04
FE
00
FD
08
FC
00
01
08
02
01
02
FF
00
06
FD
FD
F9
03
02
03
01
04
FF
FD
03
01
05
02
04
08
00
FD
06
FD
03
FD
F7
FB
FD
04
FA
FF
FB
FC
04
03
FE
FF
FF
02
07
01
FD
02
FE
08
05
09
F5
FD
00
FA
00
FC
02
05
FD
03
04
02
05
05
FB
FB
FA
04
F7
F9
01
00
05
F9
09
04
FE
03
F9
09
05
01
07
FA
FA
F7
02
03
03
01
01
FF
FE
FE
FA
01
FF
FA
08
F5
03
01
07
F8
00
FB
FE
00
06
0C
FE
09
FE
08
F9
08
F7
F6
F4
FF
0B
F9
09
04
FD
FC
FF
09
01
04
01
02
FB
FD
F6
01
F4
FC
02
FC
05
FE
01
01
FB
FF
F6
08
00
FE
02
04
02
FB
FA
FB
FF
03
FA
FD
00
FF
FB
FA
FE
02
02
FE
F9
FE
FE
03
FD
FE
FA
01
04
FB
02
FC
04
01
F9
FC
02
FF
FA
FE
00
00
01
FA
FE
01
FB
04
00
FE
FF
01
01
FC
02
FC
03
04
FA
04
01
FB
FF
FE
04
03
FF
FD
FE
01
02
05
FC
FB
FB
FA
FA
02
01
05
FD
FF
00
FE
FF
FC
FC
01
FD
FE
FA
FC
05
03
FA
FC
FE
02
05
FA
04
FF
FE
04
FB
FA
00
03
FD
04
01
01
03
01
01
FD
FE
03
FD
01
FC
FD
04
FB
05
01
01
02
05
05
04
FD
01
03
FD
02
FD
07
FF
03
03
F8
04
FC
FD
FF
F8
00
08
FE
FE
05
02
03
06
FD
06
FD
01
06
05
03
FF
06
FE
01
09
04
04
FE
05
FB
04
FF
02
FC
03
FD
FE
01
06
01
05
00
01
FB
06
F9
02
FE
FB
04
01
07
03
FB
04
08
06
03
00
FF
04
FD
FF
FF
FC
04
06
FE
07
FE
0B
03
FC
FE
FB
07
04
FE
FE
06
01
04
01
05
02
FB
FC
FE
FE
FC
FE
05
05
02
04
FF
FB
06
05
FD
05
07
01
FE
07
FE
FF
00
02
FD
00
05
06
09
FC
07
01
FC
05
FC
FE
07
FB
FB
04
FB
FE
00
08
00
FC
FB
04
01
FC
05
FB
FF
00
FB
FC
FD
00
FC
01
FC
FB
02
FB
06
02
09
FD
09
FC
05
01
FD
FD
FD
FC
FD
01
F8
00
FE
05
01
FF
FE
02
FA
F7
06
FE
04
FC
FF
04
0E
04
FD
02
04
FA
F5
0B
03
FE
FC
FD
FB
0D
05
FD
08
06
FE
FA
FA
06
08
FF
FC
03
FE
FE
FB
00
02
03
01
00
04
01
FD
04
08
FB
FF
FF
04
05
FF
04
05
EB
05
01
04
F6
FE
06
02
02
04
FC
FA
FC
00
FE
00
02
01
01
01
FB
03
02
FD
FF
FF
02
03
FB
04
F9
08
00
06
FE
06
FD
F8
04
02
00
FE
00
07
00
0D
F8
FB
FE
06
02
05
07
00
06
03
03
01
04
F7
02
03
FE
04
F8
FD
05
06
FB
05
05
FF
03
FE
07
FE
FD
02
F9
F9
07
00
FE
03
FF
04
08
00
FE
FD
01
07
EF
FE
FA
FE
03
03
FF
FF
F7
02
FC
03
05
00
FA
05
02
00
04
05
03
FD
05
FC
00
00
08
01
F9
03
FD
03
FA
FE
04
04
00
07
06
01
04
F7
06
03
FB
03
F6
FA
FF
01
01
02
02
FF
02
08
06
03
FD
04
FE
F9
03
06
05
03
04
00
06
FE
03
FC
FC
FA
FE
02
05
00
01
FE
00
F4
FF
05
03
FA
09
F8
FD
02
F9
FD
06
04
02
01
FE
04
FF
02
FC
06
06
01
FB
FC
FA
FB
04
FC
02
02
FE
03
FE
08
FB
05
06
FF
04
FB
0A
01
08
02
04
04
FD
04
07
01
02
07
08
FF
02
06
FC
07
01
FC
03
FE
02
01
00
02
F8
05
FD
FD
06
05
F9
04
02
FC
FC
02
05
00
FA
FF
02
05
08
02
0A
02
03
06
05
0A
FF
00
04
01
07
09
00
09
04
08
FA
00
02
05
03
07
04
06
02
01
02
F8
09
07
FB
05
FE
03
00
FE
FF
09
F8
FE
07
FC
F8
0A
01
04
0A
FE
04
07
04
FB
03
F2
09
07
03
FD
03
05
FC
FD
FF
0A
03
FE
FE
FE
0A
03
FB
02
FD
FF
01
FF
03
FC
FC
FE
FF
FD
FA
FB
FD
09
F9
00
05
FE
00
FB
02
03
04
FE
02
01
02
04
FF
FF
FE
0A
05
08
FB
FB
FC
09
01
05
FC
F5
06
F6
FD
04
01
FC
05
FC
F7
01
FA
F9
F9
03
FE
00
02
F8
F6
01
04
05
04
07
FD
FF
00
01
00
FF
03
F8
03
00
FF
FB
F2
FE
01
FA
02
01
F5
FD
01
05
FF
02
02
FF
01
05
FC
F1
0D
05
01
FF
02
04
03
04
FB
FC
09
05
FC
00
00
F2
06
06
FA
F7
04
FF
07
01
0C
FE
0A
FC
05
06
08
FE
0D
05
FF
FE
FF
FE
01
F9
FF
01
FD
05
06
05
FE
FE
05
00
F9
FA
01
01
02
01
05
F8
FC
FC
FA
FE
02
02
01
F9
04
00
03
FC
FF
FF
FB
04
FD
FE
FD
00
03
FF
FB
05
01
FB
F9
FF
FB
FB
F9
FB
FE
01
FA
FF
FE
00
FF
FE
FD
00
FA
04
FB
F8
FD
FE
03
FD
FF
00
FC
00
01
00
04
F9
01
FC
FA
00
03
F9
03
FC
FF
00
02
03
04
05
FB
00
FE
FA
FF
FA
FC
FD
01
FF
00
FA
02
FD
00
FE
FB
FF
FA
04
FD
03
FE
00
01
06
FB
04
05
FA
04
FB
F9
F9
FF
01
02
06
FD
FA
FD
02
F3
00
05
01
F8
FE
F6
04
05
FE
01
03
04
FE
07
01
05
00
FE
00
FD
00
07
05
00
03
02
FF
01
FF
FC
FE
01
03
03
00
FF
05
02
FD
03
F9
00
FB
FB
FB
FE
0B
05
06
04
FF
04
FF
FC
04
FD
FD
FA
FD
00
04
FD
05
F3
FF
00
0E
FA
01
01
08
FE
F9
FA
00
06
01
04
03
04
05
03
03
05
09
FE
06
07
06
00
FC
F7
FD
FF
06
06
05
04
09
03
00
00
03
01
09
02
01
07
F9
02
00
FB
FE
F9
07
FC
F9
0A
FA
F7
04
04
F9
01
F6
05
FA
05
FA
FC
03
0A
FF
00
06
04
FE
FD
00
01
03
00
01
05
FB
07
02
FA
02
09
03
FE
FA
FF
F8
FE
05
FF
FF
02
FF
02
0A
03
05
FA
00
FB
03
07
08
FC
FC
02
00
00
F6
01
04
05
04
F8
F9
07
03
03
03
07
FD
04
00
FE
06
0A
FF
07
FC
F8
F7
02
05
02
04
07
F9
05
00
FD
02
FF
09
07
00
FF
02
02
FE
FD
00
FF
FA
FF
FA
FC
FC
04
03
FC
05
FB
0A
FB
01
01
FE
02
05
04
02
02
01
03
FB
F6
09
FD
0C
FA
02
01
FB
FB
03
04
03
06
01
01
00
06
FF
02
02
FD
02
01
01
01
01
F4
F9
FB
01
FD
00
FF
FD
01
03
02
00
F9
FA
06
06
FE
01
03
00
01
FE
F8
04
FC
FE
09
0A
FE
00
03
03
08
FD
FF
03
05
04
FA
FE
FD
08
00
0C
F5
04
04
FE
00
FE
07
FE
FB
05
08
00
02
06
02
06
FC
08
FD
00
FC
00
07
07
00
00
F2
05
FA
03
04
08
FB
FB
05
FC
FD
00
FF
02
FF
FB
FB
04
03
FE
09
01
03
FD
02
FE
FF
03
00
FD
02
09
02
FF
00
05
02
FE
06
FF
F9
FF
05
07
02
02
01
02
FC
FC
FF
FD
F9
F8
01
00
FF
F7
FE
06
06
01
FB
06
FF
01
06
FD
FF
FA
01
04
F9
08
01
FB
03
09
FD
08
FE
01
04
FA
0D
FE
07
03
08
FF
FD
08
FA
01
06
04
08
01
05
FE
FB
F8
00
FD
04
07
FD
03
07
02
05
04
0A
03
FF
04
F9
06
F9
03
04
05
FC
05
04
FC
FE
FD
F8
02
FB
05
FC
03
FE
04
05
0A
02
FB
F4
03
01
03
F6
F8
FC
F3
03
FB
FD
FF
02
05
FE
06
FF
06
FF
05
FD
F9
FD
01
0C
07
00
00
06
02
0B
0B
03
07
FC
02
03
07
02
05
FB
08
07
FE
01
07
07
FB
02
05
FF
04
07
FF
05
01
FB
F8
02
01
FE
04
F7
0B
FB
FE
07
02
07
05
04
FC
02
F2
05
02
03
06
FD
FF
07
0A
0A
05
FF
05
FB
01
01
FE
05
F8
00
08
FE
03
04
FA
FF
08
00
FF
03
FE
04
00
04
05
FD
07
01
03
FC
01
06
05
FD
FF
FC
02
EA
00
03
FF
FE
FA
02
FC
00
01
FB
FD
FF
01
02
07
03
02
05
FB
00
04
03
08
07
04
03
05
05
FD
01
06
03
0A
FB
02
FC
FE
02
05
FE
00
06
FE
01
04
F9
01
FF
02
FE
07
0A
FC
01
04
05
F9
02
00
00
FD
FA
07
00
F9
01
03
FA
FC
01
F9
FC
F5
02
FC
01
02
05
FA
03
04
04
01
03
FE
01
FE
FD
FE
04
FC
FB
FE
F8
04
FD
03
03
FE
02
FD
FF
FF
FC
07
FB
07
03
07
04
06
00
05
F9
FC
FF
09
04
00
FF
04
03
01
F1
01
FD
07
01
FE
FC
F9
F9
FF
0B
FD
02
FC
03
FB
FA
FE
06
05
04
06
FF
00
09
FA
FB
FE
FA
01
04
01
03
00
05
F8
02
00
F9
FD
FD
FA
04
08
00
02
00
02
02
0A
FA
04
06
0C
07
FB
00
07
00
01
00
FE
02
08
FD
01
05
03
03
00
F5
05
00
FE
02
F8
07
01
01
04
00
09
00
05
FC
FC
06
FD
F9
00
FB
FA
FE
04
05
05
00
05
03
FF
FA
FD
02
05
FC
F2
FF
F7
04
FD
00
07
04
00
01
03
08
FE
01
01
F5
03
F3
FA
02
FF
FE
FC
F7
00
02
08
FF
03
FD
FB
F8
FB
04
02
08
01
07
F7
FE
06
02
03
06
FD
FC
FF
05
FD
07
F7
FD
F8
FC
00
05
FC
08
0E
FD
FB
FE
FE
F7
06
FB
00
05
01
03
02
06
03
02
03
F6
FA
FF
03
03
04
FB
01
03
02
FA
F7
04
FF
08
08
FD
09
04
01
06
0B
02
03
FF
03
FB
F5
01
02
FC
06
05
FE
07
07
01
00
01
FB
00
06
03
FD
FB
FB
FF
FC
FB
FD
05
07
05
08
F9
02
FF
02
FE
00
04
FF
05
FD
04
FF
02
06
02
01
FC
01
03
FC
07
FD
FE
04
09
04
07
05
FA
FC
03
FC
00
08
01
07
02
07
FD
F8
FC
03
03
08
F9
00
05
01
05
FE
06
04
FD
FE
FC
08
FC
FE
06
07
01
FA
FD
FE
02
FE
FB
05
02
FB
09
FD
FD
F9
05
FE
06
04
FF
FE
00
06
FF
00
FA
08
FF
0B
05
FB
03
FC
FE
FF
FF
01
00
03
01
04
F9
02
FF
02
06
01
01
02
01
FD
FA
05
FE
FE
FA
02
06
FE
FC
FF
FA
02
03
06
FB
07
07
08
F7
FB
08
03
FC
07
FF
FD
FC
FD
04
01
01
FA
02
FA
05
04
02
FE
F9
02
07
FF
02
FC
FF
03
03
FD
05
FE
FC
FD
FF
00
FB
01
FF
FC
01
01
FD
05
FC
F4
03
03
FA
05
00
09
FF
FD
FF
FF
07
03
F4
02
FC
07
07
FB
02
06
FE
01
01
05
05
03
07
FD
04
04
01
06
00
0F
00
02
07
02
01
01
0B
FC
FB
FA
02
FE
06
05
08
05
FB
FC
FC
02
02
FE
05
FE
08
03
FA
00
06
07
06
FB
01
05
F4
FE
FD
07
0C
02
07
F9
04
07
00
07
04
FD
FA
06
04
06
F9
00
07
FC
FC
00
01
03
FC
FB
FB
01
03
01
04
04
05
04
06
0A
FE
02
FE
FC
05
03
FE
FC
FE
01
06
07
00
FA
FE
F9
FB
FC
F8
F2
02
03
01
FD
FA
06
02
02
FA
FE
08
01
03
05
02
02
05
FB
06
01
05
FC
05
00
07
FC
FB
FF
FF
FE
FB
01
08
04
03
07
FE
01
FC
FC
FF
06
0C
03
07
05
FC
01
09
06
FE
07
03
04
06
FB
03
FB
FC
FE
05
04
08
01
FC
01
0B
03
07
0B
FD
FD
07
07
FF
03
FD
01
FB
FC
02
03
06
00
00
00
05
FF
FF
07
04
06
FB
FD
FE
F8
05
01
07
FA
FC
03
00
08
01
01
03
08
02
F2
FC
FD
06
0A
FD
FE
FD
FE
FD
03
FF
04
04
FA
FB
F6
04
01
FD
F9
07
FF
02
00
00
0B
FD
06
02
02
FF
FE
05
FE
FF
06
04
07
08
04
FF
08
08
0E
09
FC
00
01
FC
06
FC
03
00
FD
FE
FF
02
FD
FC
FC
FC
02
FD
06
06
03
FA
03
01
08
F6
FD
0D
FC
FE
02
02
01
FF
FC
02
FC
01
FD
04
FC
FE
FF
01
01
02
FE
03
FD
F4
06
07
06
01
FF
04
FE
FC
07
FF
01
00
04
06
F9
01
05
04
09
F9
FA
06
02
0B
FE
FD
F5
FE
FA
F6
03
04
05
F7
0E
F7
FE
FF
FE
0D
01
FE
08
FE
FD
06
FF
03
FF
02
00
FE
06
01
FF
04
05
05
03
FF
02
06
05
00
F6
00
FE
FA
02
03
09
FB
04
FF
FF
FB
03
07
FB
08
FB
FC
00
FF
F5
F9
FB
04
03
F8
01
03
05
00
05
01
05
F6
FF
FF
06
F8
07
03
07
06
FB
FF
FC
03
FA
04
01
FE
FF
FF
03
05
03
09
04
06
FC
02
08
07
FC
FB
05
FF
06
05
05
FF
FB
06
FE
FE
FA
FE
02
FC
FD
FF
F9
06
00
FF
04
08
FE
03
FB
09
00
FB
F7
01
02
FD
FE
FB
03
02
FF
03
FC
01
0B
04
FC
FC
08
FC
01
06
F7
07
FE
02
03
03
0C
00
07
02
06
08
08
FC
FF
03
FB
07
FC
04
FC
08
03
03
05
FC
05
FF
02
05
FA
05
FC
05
FC
06
05
FA
00
FC
02
FE
03
FC
05
0A
01
F8
FF
04
FD
04
04
04
00
FC
FE
FD
04
FC
FD
FE
FD
FF
05
04
FF
F9
03
02
02
04
FD
FA
00
FC
04
03
FC
00
FA
FD
FB
03
05
FB
06
FE
00
03
05
FC
F3
03
F9
FC
FD
FA
FC
FA
05
FA
04
01
FC
F1
FF
FF
01
00
06
FD
FE
05
04
00
FA
FC
FD
08
02
00
FE
05
01
07
08
FE
03
07
07
00
03
08
FD
00
FB
FD
FC
FF
05
05
02
FF
03
FC
07
FD
FA
01
FC
FE
00
FD
01
06
01
02
07
FC
00
0A
FF
FC
09
02
09
01
FE
01
05
03
FE
F9
FD
00
01
00
05
07
05
08
FF
FC
03
04
FE
FF
02
08
FD
03
FD
FF
FC
FC
08
04
02
FA
FD
FE
01
FC
FB
FE
FB
06
FC
06
01
FA
F9
FE
06
FD
FD
03
01
FE
00
F8
02
06
03
F8
06
02
FC
04
06
FE
07
FE
06
FB
07
FA
03
09
01
01
04
00
03
FD
02
F8
02
03
05
04
FC
08
03
FE
00
02
FE
09
00
04
04
F9
FE
04
06
FC
FA
07
FA
07
FD
00
01
