FFFFFFF0
FFFFFF80
FFFFFF80
FFFFFF80
FFFFFF80
0000007F
FFFFFF9F
FFFFFF80
FFFFFFE3
0000007F
00000068
0000007F
FFFFFF80
FFFFFF80
FFFFFF80
0000007F
0000007F
0000000A
FFFFFF80
0000007F
0000007A
0000007F
0000007F
0000007F
FFFFFF80
0000001F
0000007F
FFFFFF80
0000007F
FFFFFF80
0000007F
0000005F
FFFFFF80
0000007F
0000007F
FFFFFF80
0000007F
FFFFFF80
0000007F
FFFFFFEF
0000002B
FFFFFF80
FFFFFF80
FFFFFF80
0000007F
0000007F
0000007F
0000007F
0000007F
0000007F
FFFFFF84
0000003A
FFFFFFFE
FFFFFF80
FFFFFFB9
FFFFFF80
FFFFFF80
FFFFFF80
0000007F
00000040
FFFFFF80
FFFFFFCA
0000007F
0000007F
0000007F
0000007F
FFFFFF9F
0000007F
0000007F
00000024
0000007F
00000053
00000034
0000007F
0000007F
0000007F
00000014
0000007F
FFFFFF80
FFFFFFE8
00000026
FFFFFF86
0000001C
0000007F
