F5
07
FF
04
08
03
05
FB
03
06
F8
06
08
0A
02
06
F6
05
F4
FD
00
F8
07
01
07
06
02
F8
00
FC
FE
05
03
FA
F5
F3
06
03
08
FE
FE
02
F7
F9
01
F6
07
01
F8
05
FC
08
F7
04
08
06
FC
04
06
00
01
FF
01
FD
FA
09
E7
FF
02
FB
05
FF
F8
F9
F3
F9
FE
07
01
FE
07
01
04
06
07
F8
00
07
01
F8
FF
05
06
F8
03
F6
00
07
03
04
FB
09
05
F1
F1
05
FF
06
02
FD
F9
00
FD
FA
F5
09
F6
00
08
09
F9
FD
03
FB
F5
01
F8
06
06
FF
FF
09
00
F9
F8
03
FC
01
03
04
06
FA
00
0C
FF
02
FA
F6
F9
01
FC
05
F4
05
FF
0C
FF
F6
FB
05
08
FD
FC
0B
09
FC
FE
FD
06
FB
02
02
FA
F3
05
09
02
FA
F1
FC
F5
01
05
FE
03
F5
00
08
01
03
03
FB
0A
0B
08
06
05
F5
06
F1
01
FB
FF
FE
FB
F3
F6
F5
03
02
F9
05
05
F8
F8
F7
F4
FF
06
F8
FB
02
04
08
FF
03
FD
08
FE
03
FF
07
03
07
F6
FE
FE
0A
01
01
04
08
FF
F7
04
F9
06
06
F2
08
00
F6
01
FD
FF
F4
01
F7
04
FD
04
FF
09
F7
01
ED
FD
05
01
FE
02
FB
FE
09
00
09
F8
FB
F7
02
05
F6
09
06
FD
06
FC
FE
07
02
01
FC
FA
FE
F9
FA
F9
06
FE
F5
FA
FA
09
09
FF
06
FA
FA
0B
06
08
F1
FB
FF
06
04
03
F9
FA
FA
04
0B
FA
FA
07
06
FD
09
FC
FD
09
F1
EC
FE
FE
F5
F4
00
00
07
06
F8
F7
03
FA
01
FC
FF
07
09
F8
F2
08
FA
02
FC
0B
08
F9
FB
09
FD
0B
F2
F9
F8
FE
08
FC
00
06
FE
F2
F8
03
06
F9
02
02
03
F6
08
FD
06
03
FA
01
F1
FC
02
03
FE
F4
FF
F2
F4
FF
03
01
F8
07
FA
0A
FE
FE
00
F7
FF
02
FA
FC
04
FF
0A
0A
05
FE
08
08
08
03
07
04
FD
FE
0B
FF
F6
FB
05
04
01
EF
00
03
08
FF
06
FB
F7
F7
07
05
F8
08
05
F6
FD
08
FD
08
FB
FC
F9
06
08
FE
02
FD
0A
F2
FC
FB
FA
F8
09
F9
FE
00
F9
05
07
0B
FA
FE
F6
03
FE
05
0B
FA
07
FC
01
06
FD
F0
01
03
EF
0A
01
FA
F9
08
04
F6
FD
FC
FA
04
07
F8
01
05
05
00
F4
FB
0C
FB
FE
04
01
F6
FD
FC
07
06
FF
F6
F9
FB
01
09
FB
05
FA
F8
01
FF
01
FE
FD
07
08
02
F2
06
F9
03
F5
F5
06
02
FD
FA
F4
05
F8
FE
09
F5
F4
03
FA
06
FB
08
09
FD
FF
08
00
00
F4
F7
FE
F7
F9
FE
FF
00
F7
06
07
FC
FD
07
06
02
08
FE
FB
06
05
FC
06
03
F8
00
08
FC
08
01
01
FF
FF
04
04
01
FC
EF
02
FC
05
FB
09
06
FC
01
04
F8
F8
FF
0C
FD
FE
FB
FB
02
05
FA
07
F5
01
09
F7
03
FC
03
08
FD
03
F8
FE
05
0A
02
07
07
00
03
F6
04
FA
F7
0C
06
02
0B
07
06
F4
03
00
F9
05
09
FB
FA
FC
02
FB
FC
F5
02
0B
F1
01
F8
FF
02
FD
04
FC
04
01
F7
F7
FE
01
04
F9
FD
EE
F5
FB
FC
FB
FB
06
F4
F7
06
FA
EC
05
FC
0C
FD
F7
07
F4
F9
0B
FE
FD
07
FF
08
FA
01
FB
07
FF
05
00
F4
0B
06
F8
F9
04
F3
FB
04
F6
FB
FB
03
F6
03
02
02
0B
01
09
F9
02
07
F6
06
F8
04
07
08
06
07
07
FD
FC
00
09
03
02
FA
01
06
F6
FF
04
FD
02
05
07
FF
0B
F9
03
FD
01
FC
06
FE
FB
FA
F7
F3
05
00
F8
FB
F2
0B
FE
FA
FC
01
09
0A
F6
01
00
06
FE
01
FA
03
07
F6
09
0D
FD
07
03
01
FA
02
FE
F2
06
FB
03
FC
F8
FD
06
F5
F6
FF
0B
05
FB
FC
F7
F3
01
07
00
FF
02
02
00
07
F9
08
01
FD
05
